{
  "version": "1.0",
  "truncation": null,
  "padding": null,
  "added_tokens": [
    {
      "id": 1,
      "special": true,
      "content": "[speaker1]",
      "single_word": false,
      "lstrip": false,
      "rstrip": false,
      "normalized": false
    },
    {
      "id": 2,
      "special": true,
      "content": "[speaker2]",
      "single_word": false,
      "lstrip": false,
      "rstrip": false,
      "normalized": false
    }
  ],
  "normalizer": {
    "type": "BertNormalizer",
    "clean_text": true,
    "handle_chinese_chars": true,
    "strip_accents": null,
    "lowercase": true
  },
  "pre_tokenizer": {
    "type": "BertPreTokenizer"
  },
  "post_processor": {
    "type": "TemplateProcessing",
    "single": [
      {
        "SpecialToken": {
          "id": "[CLS]",
          "type_id": 0
        }
      },
      {
        "Sequence": {
          "id": "A",
          "type_id": 0
        }
      },
      {
        "SpecialToken": {
          "id": "[SEP]",
          "type_id": 0
        }
      }
    ],
    "pair": [
      {
        "SpecialToken": {
          "id": "[CLS]",
          "type_id": 0
        }
      },
      {
        "Sequence": {
          "id": "A",
          "type_id": 0
        }
      },
      {
        "SpecialToken": {
          "id": "[SEP]",
          "type_id": 0
        }
      },
      {
        "Sequence": {
          "id": "B",
          "type_id": 1
        }
      },
      {
        "SpecialToken": {
          "id": "[SEP]",
          "type_id": 1
        }
      }
    ],
    "special_tokens": {
      "[CLS]": {
        "id": "[CLS]",
        "ids": [
          103
        ],
        "tokens": [
          "[CLS]"
        ]
      },
      "[SEP]": {
        "id": "[SEP]",
        "ids": [
          104
        ],
        "tokens": [
          "[SEP]"
        ]
      }
    }
  },
  "decoder": {
    "type": "WordPiece",
    "prefix": "##",
    "cleanup": true
  },
  "model": {
    "type": "WordPiece",
    "unk_token": "[UNK]",
    "continuing_subword_prefix": "##",
    "max_input_chars_per_word": 100,
    "vocab": {
      "[PAD]": 0,
      "[speaker1]": 1,
      "[speaker2]": 2,
      "“": 3,
      "”": 4,
      "’": 5,
      "‘": 6,
      "[unused5]": 7,
      "[unused6]": 8,
      "[unused7]": 9,
      "[unused8]": 10,
      "[unused9]": 11,
      "[unused10]": 12,
      "[unused11]": 13,
      "[unused12]": 14,
      "[unused13]": 15,
      "[unused14]": 16,
      "[unused15]": 17,
      "[unused16]": 18,
      "[unused17]": 19,
      "[unused18]": 20,
      "[unused19]": 21,
      "[unused20]": 22,
      "[unused21]": 23,
      "[unused22]": 24,
      "[unused23]": 25,
      "[unused24]": 26,
      "[unused25]": 27,
      "[unused26]": 28,
      "[unused27]": 29,
      "[unused28]": 30,
      "[unused29]": 31,
      "[unused30]": 32,
      "[unused31]": 33,
      "[unused32]": 34,
      "[unused33]": 35,
      "[unused34]": 36,
      "[unused35]": 37,
      "[unused36]": 38,
      "[unused37]": 39,
      "[unused38]": 40,
      "[unused39]": 41,
      "[unused40]": 42,
      "[unused41]": 43,
      "[unused42]": 44,
      "[unused43]": 45,
      "[unused44]": 46,
      "[unused45]": 47,
      "[unused46]": 48,
      "[unused47]": 49,
      "[unused48]": 50,
      "[unused49]": 51,
      "[unused50]": 52,
      "[unused51]": 53,
      "[unused52]": 54,
      "[unused53]": 55,
      "[unused54]": 56,
      "[unused55]": 57,
      "[unused56]": 58,
      "[unused57]": 59,
      "[unused58]": 60,
      "[unused59]": 61,
      "[unused60]": 62,
      "[unused61]": 63,
      "[unused62]": 64,
      "[unused63]": 65,
      "[unused64]": 66,
      "[unused65]": 67,
      "[unused66]": 68,
      "[unused67]": 69,
      "[unused68]": 70,
      "[unused69]": 71,
      "[unused70]": 72,
      "[unused71]": 73,
      "[unused72]": 74,
      "[unused73]": 75,
      "[unused74]": 76,
      "[unused75]": 77,
      "[unused76]": 78,
      "[unused77]": 79,
      "[unused78]": 80,
      "[unused79]": 81,
      "[unused80]": 82,
      "[unused81]": 83,
      "[unused82]": 84,
      "[unused83]": 85,
      "[unused84]": 86,
      "[unused85]": 87,
      "[unused86]": 88,
      "[unused87]": 89,
      "[unused88]": 90,
      "[unused89]": 91,
      "[unused90]": 92,
      "[unused91]": 93,
      "[unused92]": 94,
      "[unused93]": 95,
      "[unused94]": 96,
      "[unused95]": 97,
      "[unused96]": 98,
      "[unused97]": 99,
      "[unused98]": 100,
      "[unused99]": 101,
      "[UNK]": 102,
      "[CLS]": 103,
      "[SEP]": 104,
      "[MASK]": 105,
      "<S>": 106,
      "<T>": 107,
      "!": 108,
      "\"": 109,
      "#": 110,
      "$": 111,
      "%": 112,
      "&": 113,
      "'": 114,
      "(": 115,
      ")": 116,
      "*": 117,
      "+": 118,
      ",": 119,
      "-": 120,
      ".": 121,
      "/": 122,
      "0": 123,
      "1": 124,
      "2": 125,
      "3": 126,
      "4": 127,
      "5": 128,
      "6": 129,
      "7": 130,
      "8": 131,
      "9": 132,
      ":": 133,
      ";": 134,
      "<": 135,
      "=": 136,
      ">": 137,
      "?": 138,
      "@": 139,
      "[": 140,
      "\\": 141,
      "]": 142,
      "^": 143,
      "_": 144,
      "a": 145,
      "b": 146,
      "c": 147,
      "d": 148,
      "e": 149,
      "f": 150,
      "g": 151,
      "h": 152,
      "i": 153,
      "j": 154,
      "k": 155,
      "l": 156,
      "m": 157,
      "n": 158,
      "o": 159,
      "p": 160,
      "q": 161,
      "r": 162,
      "s": 163,
      "t": 164,
      "u": 165,
      "v": 166,
      "w": 167,
      "x": 168,
      "y": 169,
      "z": 170,
      "{": 171,
      "|": 172,
      "}": 173,
      "~": 174,
      "£": 175,
      "¤": 176,
      "¥": 177,
      "§": 178,
      "©": 179,
      "«": 180,
      "®": 181,
      "°": 182,
      "±": 183,
      "²": 184,
      "³": 185,
      "µ": 186,
      "·": 187,
      "¹": 188,
      "º": 189,
      "»": 190,
      "¼": 191,
      "×": 192,
      "ß": 193,
      "æ": 194,
      "÷": 195,
      "ø": 196,
      "đ": 197,
      "ŋ": 198,
      "ɔ": 199,
      "ə": 200,
      "ɡ": 201,
      "ʰ": 202,
      "ˇ": 203,
      "ˈ": 204,
      "ˊ": 205,
      "ˋ": 206,
      "ˍ": 207,
      "ː": 208,
      "˙": 209,
      "˚": 210,
      "ˢ": 211,
      "α": 212,
      "β": 213,
      "γ": 214,
      "δ": 215,
      "ε": 216,
      "η": 217,
      "θ": 218,
      "ι": 219,
      "κ": 220,
      "λ": 221,
      "μ": 222,
      "ν": 223,
      "ο": 224,
      "π": 225,
      "ρ": 226,
      "ς": 227,
      "σ": 228,
      "τ": 229,
      "υ": 230,
      "φ": 231,
      "χ": 232,
      "ψ": 233,
      "ω": 234,
      "а": 235,
      "б": 236,
      "в": 237,
      "г": 238,
      "д": 239,
      "е": 240,
      "ж": 241,
      "з": 242,
      "и": 243,
      "к": 244,
      "л": 245,
      "м": 246,
      "н": 247,
      "о": 248,
      "п": 249,
      "р": 250,
      "с": 251,
      "т": 252,
      "у": 253,
      "ф": 254,
      "х": 255,
      "ц": 256,
      "ч": 257,
      "ш": 258,
      "ы": 259,
      "ь": 260,
      "я": 261,
      "і": 262,
      "ا": 263,
      "ب": 264,
      "ة": 265,
      "ت": 266,
      "د": 267,
      "ر": 268,
      "س": 269,
      "ع": 270,
      "ل": 271,
      "م": 272,
      "ن": 273,
      "ه": 274,
      "و": 275,
      "ي": 276,
      "۩": 277,
      "ก": 278,
      "ง": 279,
      "น": 280,
      "ม": 281,
      "ย": 282,
      "ร": 283,
      "อ": 284,
      "า": 285,
      "เ": 286,
      "๑": 287,
      "་": 288,
      "ღ": 289,
      "ᄀ": 290,
      "ᄁ": 291,
      "ᄂ": 292,
      "ᄃ": 293,
      "ᄅ": 294,
      "ᄆ": 295,
      "ᄇ": 296,
      "ᄈ": 297,
      "ᄉ": 298,
      "ᄋ": 299,
      "ᄌ": 300,
      "ᄎ": 301,
      "ᄏ": 302,
      "ᄐ": 303,
      "ᄑ": 304,
      "ᄒ": 305,
      "ᅡ": 306,
      "ᅢ": 307,
      "ᅣ": 308,
      "ᅥ": 309,
      "ᅦ": 310,
      "ᅧ": 311,
      "ᅨ": 312,
      "ᅩ": 313,
      "ᅪ": 314,
      "ᅬ": 315,
      "ᅭ": 316,
      "ᅮ": 317,
      "ᅯ": 318,
      "ᅲ": 319,
      "ᅳ": 320,
      "ᅴ": 321,
      "ᅵ": 322,
      "ᆨ": 323,
      "ᆫ": 324,
      "ᆯ": 325,
      "ᆷ": 326,
      "ᆸ": 327,
      "ᆺ": 328,
      "ᆻ": 329,
      "ᆼ": 330,
      "ᗜ": 331,
      "ᵃ": 332,
      "ᵉ": 333,
      "ᵍ": 334,
      "ᵏ": 335,
      "ᵐ": 336,
      "ᵒ": 337,
      "ᵘ": 338,
      "‖": 339,
      "„": 340,
      "†": 341,
      "•": 342,
      "‥": 343,
      "‧": 344,
      " ": 345,
      "‰": 346,
      "′": 347,
      "″": 348,
      "‹": 349,
      "›": 350,
      "※": 351,
      "‿": 352,
      "⁄": 353,
      "ⁱ": 354,
      "⁺": 355,
      "ⁿ": 356,
      "₁": 357,
      "₂": 358,
      "₃": 359,
      "₄": 360,
      "€": 361,
      "℃": 362,
      "№": 363,
      "™": 364,
      "ⅰ": 365,
      "ⅱ": 366,
      "ⅲ": 367,
      "ⅳ": 368,
      "ⅴ": 369,
      "←": 370,
      "↑": 371,
      "→": 372,
      "↓": 373,
      "↔": 374,
      "↗": 375,
      "↘": 376,
      "⇒": 377,
      "∀": 378,
      "−": 379,
      "∕": 380,
      "∙": 381,
      "√": 382,
      "∞": 383,
      "∟": 384,
      "∠": 385,
      "∣": 386,
      "∥": 387,
      "∩": 388,
      "∮": 389,
      "∶": 390,
      "∼": 391,
      "∽": 392,
      "≈": 393,
      "≒": 394,
      "≡": 395,
      "≤": 396,
      "≥": 397,
      "≦": 398,
      "≧": 399,
      "≪": 400,
      "≫": 401,
      "⊙": 402,
      "⋅": 403,
      "⋈": 404,
      "⋯": 405,
      "⌒": 406,
      "①": 407,
      "②": 408,
      "③": 409,
      "④": 410,
      "⑤": 411,
      "⑥": 412,
      "⑦": 413,
      "⑧": 414,
      "⑨": 415,
      "⑩": 416,
      "⑴": 417,
      "⑵": 418,
      "⑶": 419,
      "⑷": 420,
      "⑸": 421,
      "⒈": 422,
      "⒉": 423,
      "⒊": 424,
      "⒋": 425,
      "ⓒ": 426,
      "ⓔ": 427,
      "ⓘ": 428,
      "─": 429,
      "━": 430,
      "│": 431,
      "┃": 432,
      "┅": 433,
      "┆": 434,
      "┊": 435,
      "┌": 436,
      "└": 437,
      "├": 438,
      "┣": 439,
      "═": 440,
      "║": 441,
      "╚": 442,
      "╞": 443,
      "╠": 444,
      "╭": 445,
      "╮": 446,
      "╯": 447,
      "╰": 448,
      "╱": 449,
      "╳": 450,
      "▂": 451,
      "▃": 452,
      "▅": 453,
      "▇": 454,
      "█": 455,
      "▉": 456,
      "▋": 457,
      "▌": 458,
      "▍": 459,
      "▎": 460,
      "■": 461,
      "□": 462,
      "▪": 463,
      "▫": 464,
      "▬": 465,
      "▲": 466,
      "△": 467,
      "▶": 468,
      "►": 469,
      "▼": 470,
      "▽": 471,
      "◆": 472,
      "◇": 473,
      "○": 474,
      "◎": 475,
      "●": 476,
      "◕": 477,
      "◠": 478,
      "◢": 479,
      "◤": 480,
      "☀": 481,
      "★": 482,
      "☆": 483,
      "☕": 484,
      "☞": 485,
      "☺": 486,
      "☼": 487,
      "♀": 488,
      "♂": 489,
      "♠": 490,
      "♡": 491,
      "♣": 492,
      "♥": 493,
      "♦": 494,
      "♪": 495,
      "♫": 496,
      "♬": 497,
      "✈": 498,
      "✔": 499,
      "✕": 500,
      "✖": 501,
      "✦": 502,
      "✨": 503,
      "✪": 504,
      "✰": 505,
      "✿": 506,
      "❀": 507,
      "❤": 508,
      "➜": 509,
      "➤": 510,
      "⦿": 511,
      "、": 512,
      "。": 513,
      "〃": 514,
      "々": 515,
      "〇": 516,
      "〈": 517,
      "〉": 518,
      "《": 519,
      "》": 520,
      "「": 521,
      "」": 522,
      "『": 523,
      "』": 524,
      "【": 525,
      "】": 526,
      "〓": 527,
      "〔": 528,
      "〕": 529,
      "〖": 530,
      "〗": 531,
      "〜": 532,
      "〝": 533,
      "〞": 534,
      "ぁ": 535,
      "あ": 536,
      "ぃ": 537,
      "い": 538,
      "う": 539,
      "ぇ": 540,
      "え": 541,
      "お": 542,
      "か": 543,
      "き": 544,
      "く": 545,
      "け": 546,
      "こ": 547,
      "さ": 548,
      "し": 549,
      "す": 550,
      "せ": 551,
      "そ": 552,
      "た": 553,
      "ち": 554,
      "っ": 555,
      "つ": 556,
      "て": 557,
      "と": 558,
      "な": 559,
      "に": 560,
      "ぬ": 561,
      "ね": 562,
      "の": 563,
      "は": 564,
      "ひ": 565,
      "ふ": 566,
      "へ": 567,
      "ほ": 568,
      "ま": 569,
      "み": 570,
      "む": 571,
      "め": 572,
      "も": 573,
      "ゃ": 574,
      "や": 575,
      "ゅ": 576,
      "ゆ": 577,
      "ょ": 578,
      "よ": 579,
      "ら": 580,
      "り": 581,
      "る": 582,
      "れ": 583,
      "ろ": 584,
      "わ": 585,
      "を": 586,
      "ん": 587,
      "゜": 588,
      "ゝ": 589,
      "ァ": 590,
      "ア": 591,
      "ィ": 592,
      "イ": 593,
      "ゥ": 594,
      "ウ": 595,
      "ェ": 596,
      "エ": 597,
      "ォ": 598,
      "オ": 599,
      "カ": 600,
      "キ": 601,
      "ク": 602,
      "ケ": 603,
      "コ": 604,
      "サ": 605,
      "シ": 606,
      "ス": 607,
      "セ": 608,
      "ソ": 609,
      "タ": 610,
      "チ": 611,
      "ッ": 612,
      "ツ": 613,
      "テ": 614,
      "ト": 615,
      "ナ": 616,
      "ニ": 617,
      "ヌ": 618,
      "ネ": 619,
      "ノ": 620,
      "ハ": 621,
      "ヒ": 622,
      "フ": 623,
      "ヘ": 624,
      "ホ": 625,
      "マ": 626,
      "ミ": 627,
      "ム": 628,
      "メ": 629,
      "モ": 630,
      "ャ": 631,
      "ヤ": 632,
      "ュ": 633,
      "ユ": 634,
      "ョ": 635,
      "ヨ": 636,
      "ラ": 637,
      "リ": 638,
      "ル": 639,
      "レ": 640,
      "ロ": 641,
      "ワ": 642,
      "ヲ": 643,
      "ン": 644,
      "ヶ": 645,
      "・": 646,
      "ー": 647,
      "ヽ": 648,
      "ㄅ": 649,
      "ㄆ": 650,
      "ㄇ": 651,
      "ㄉ": 652,
      "ㄋ": 653,
      "ㄌ": 654,
      "ㄍ": 655,
      "ㄎ": 656,
      "ㄏ": 657,
      "ㄒ": 658,
      "ㄚ": 659,
      "ㄛ": 660,
      "ㄞ": 661,
      "ㄟ": 662,
      "ㄢ": 663,
      "ㄤ": 664,
      "ㄥ": 665,
      "ㄧ": 666,
      "ㄨ": 667,
      "ㆍ": 668,
      "㈦": 669,
      "㊣": 670,
      "㎡": 671,
      "㗎": 672,
      "一": 673,
      "丁": 674,
      "七": 675,
      "万": 676,
      "丈": 677,
      "三": 678,
      "上": 679,
      "下": 680,
      "不": 681,
      "与": 682,
      "丐": 683,
      "丑": 684,
      "专": 685,
      "且": 686,
      "丕": 687,
      "世": 688,
      "丘": 689,
      "丙": 690,
      "业": 691,
      "丛": 692,
      "东": 693,
      "丝": 694,
      "丞": 695,
      "丟": 696,
      "両": 697,
      "丢": 698,
      "两": 699,
      "严": 700,
      "並": 701,
      "丧": 702,
      "丨": 703,
      "个": 704,
      "丫": 705,
      "中": 706,
      "丰": 707,
      "串": 708,
      "临": 709,
      "丶": 710,
      "丸": 711,
      "丹": 712,
      "为": 713,
      "主": 714,
      "丼": 715,
      "丽": 716,
      "举": 717,
      "丿": 718,
      "乂": 719,
      "乃": 720,
      "久": 721,
      "么": 722,
      "义": 723,
      "之": 724,
      "乌": 725,
      "乍": 726,
      "乎": 727,
      "乏": 728,
      "乐": 729,
      "乒": 730,
      "乓": 731,
      "乔": 732,
      "乖": 733,
      "乗": 734,
      "乘": 735,
      "乙": 736,
      "乜": 737,
      "九": 738,
      "乞": 739,
      "也": 740,
      "习": 741,
      "乡": 742,
      "书": 743,
      "乩": 744,
      "买": 745,
      "乱": 746,
      "乳": 747,
      "乾": 748,
      "亀": 749,
      "亂": 750,
      "了": 751,
      "予": 752,
      "争": 753,
      "事": 754,
      "二": 755,
      "于": 756,
      "亏": 757,
      "云": 758,
      "互": 759,
      "五": 760,
      "井": 761,
      "亘": 762,
      "亙": 763,
      "亚": 764,
      "些": 765,
      "亜": 766,
      "亞": 767,
      "亟": 768,
      "亡": 769,
      "亢": 770,
      "交": 771,
      "亥": 772,
      "亦": 773,
      "产": 774,
      "亨": 775,
      "亩": 776,
      "享": 777,
      "京": 778,
      "亭": 779,
      "亮": 780,
      "亲": 781,
      "亳": 782,
      "亵": 783,
      "人": 784,
      "亿": 785,
      "什": 786,
      "仁": 787,
      "仃": 788,
      "仄": 789,
      "仅": 790,
      "仆": 791,
      "仇": 792,
      "今": 793,
      "介": 794,
      "仍": 795,
      "从": 796,
      "仏": 797,
      "仑": 798,
      "仓": 799,
      "仔": 800,
      "仕": 801,
      "他": 802,
      "仗": 803,
      "付": 804,
      "仙": 805,
      "仝": 806,
      "仞": 807,
      "仟": 808,
      "代": 809,
      "令": 810,
      "以": 811,
      "仨": 812,
      "仪": 813,
      "们": 814,
      "仮": 815,
      "仰": 816,
      "仲": 817,
      "件": 818,
      "价": 819,
      "任": 820,
      "份": 821,
      "仿": 822,
      "企": 823,
      "伉": 824,
      "伊": 825,
      "伍": 826,
      "伎": 827,
      "伏": 828,
      "伐": 829,
      "休": 830,
      "伕": 831,
      "众": 832,
      "优": 833,
      "伙": 834,
      "会": 835,
      "伝": 836,
      "伞": 837,
      "伟": 838,
      "传": 839,
      "伢": 840,
      "伤": 841,
      "伦": 842,
      "伪": 843,
      "伫": 844,
      "伯": 845,
      "估": 846,
      "伴": 847,
      "伶": 848,
      "伸": 849,
      "伺": 850,
      "似": 851,
      "伽": 852,
      "佃": 853,
      "但": 854,
      "佇": 855,
      "佈": 856,
      "位": 857,
      "低": 858,
      "住": 859,
      "佐": 860,
      "佑": 861,
      "体": 862,
      "佔": 863,
      "何": 864,
      "佗": 865,
      "佘": 866,
      "余": 867,
      "佚": 868,
      "佛": 869,
      "作": 870,
      "佝": 871,
      "佞": 872,
      "佟": 873,
      "你": 874,
      "佢": 875,
      "佣": 876,
      "佤": 877,
      "佥": 878,
      "佩": 879,
      "佬": 880,
      "佯": 881,
      "佰": 882,
      "佳": 883,
      "併": 884,
      "佶": 885,
      "佻": 886,
      "佼": 887,
      "使": 888,
      "侃": 889,
      "侄": 890,
      "來": 891,
      "侈": 892,
      "例": 893,
      "侍": 894,
      "侏": 895,
      "侑": 896,
      "侖": 897,
      "侗": 898,
      "供": 899,
      "依": 900,
      "侠": 901,
      "価": 902,
      "侣": 903,
      "侥": 904,
      "侦": 905,
      "侧": 906,
      "侨": 907,
      "侬": 908,
      "侮": 909,
      "侯": 910,
      "侵": 911,
      "侶": 912,
      "侷": 913,
      "便": 914,
      "係": 915,
      "促": 916,
      "俄": 917,
      "俊": 918,
      "俎": 919,
      "俏": 920,
      "俐": 921,
      "俑": 922,
      "俗": 923,
      "俘": 924,
      "俚": 925,
      "保": 926,
      "俞": 927,
      "俟": 928,
      "俠": 929,
      "信": 930,
      "俨": 931,
      "俩": 932,
      "俪": 933,
      "俬": 934,
      "俭": 935,
      "修": 936,
      "俯": 937,
      "俱": 938,
      "俳": 939,
      "俸": 940,
      "俺": 941,
      "俾": 942,
      "倆": 943,
      "倉": 944,
      "個": 945,
      "倌": 946,
      "倍": 947,
      "倏": 948,
      "們": 949,
      "倒": 950,
      "倔": 951,
      "倖": 952,
      "倘": 953,
      "候": 954,
      "倚": 955,
      "倜": 956,
      "借": 957,
      "倡": 958,
      "値": 959,
      "倦": 960,
      "倩": 961,
      "倪": 962,
      "倫": 963,
      "倬": 964,
      "倭": 965,
      "倶": 966,
      "债": 967,
      "值": 968,
      "倾": 969,
      "偃": 970,
      "假": 971,
      "偈": 972,
      "偉": 973,
      "偌": 974,
      "偎": 975,
      "偏": 976,
      "偕": 977,
      "做": 978,
      "停": 979,
      "健": 980,
      "側": 981,
      "偵": 982,
      "偶": 983,
      "偷": 984,
      "偻": 985,
      "偽": 986,
      "偿": 987,
      "傀": 988,
      "傅": 989,
      "傍": 990,
      "傑": 991,
      "傘": 992,
      "備": 993,
      "傚": 994,
      "傢": 995,
      "傣": 996,
      "傥": 997,
      "储": 998,
      "傩": 999,
      "催": 1000,
      "傭": 1001,
      "傲": 1002,
      "傳": 1003,
      "債": 1004,
      "傷": 1005,
      "傻": 1006,
      "傾": 1007,
      "僅": 1008,
      "働": 1009,
      "像": 1010,
      "僑": 1011,
      "僕": 1012,
      "僖": 1013,
      "僚": 1014,
      "僥": 1015,
      "僧": 1016,
      "僭": 1017,
      "僮": 1018,
      "僱": 1019,
      "僵": 1020,
      "價": 1021,
      "僻": 1022,
      "儀": 1023,
      "儂": 1024,
      "億": 1025,
      "儆": 1026,
      "儉": 1027,
      "儋": 1028,
      "儒": 1029,
      "儕": 1030,
      "儘": 1031,
      "償": 1032,
      "儡": 1033,
      "優": 1034,
      "儲": 1035,
      "儷": 1036,
      "儼": 1037,
      "儿": 1038,
      "兀": 1039,
      "允": 1040,
      "元": 1041,
      "兄": 1042,
      "充": 1043,
      "兆": 1044,
      "兇": 1045,
      "先": 1046,
      "光": 1047,
      "克": 1048,
      "兌": 1049,
      "免": 1050,
      "児": 1051,
      "兑": 1052,
      "兒": 1053,
      "兔": 1054,
      "兖": 1055,
      "党": 1056,
      "兜": 1057,
      "兢": 1058,
      "入": 1059,
      "內": 1060,
      "全": 1061,
      "兩": 1062,
      "八": 1063,
      "公": 1064,
      "六": 1065,
      "兮": 1066,
      "兰": 1067,
      "共": 1068,
      "兲": 1069,
      "关": 1070,
      "兴": 1071,
      "兵": 1072,
      "其": 1073,
      "具": 1074,
      "典": 1075,
      "兹": 1076,
      "养": 1077,
      "兼": 1078,
      "兽": 1079,
      "冀": 1080,
      "内": 1081,
      "円": 1082,
      "冇": 1083,
      "冈": 1084,
      "冉": 1085,
      "冊": 1086,
      "册": 1087,
      "再": 1088,
      "冏": 1089,
      "冒": 1090,
      "冕": 1091,
      "冗": 1092,
      "写": 1093,
      "军": 1094,
      "农": 1095,
      "冠": 1096,
      "冢": 1097,
      "冤": 1098,
      "冥": 1099,
      "冨": 1100,
      "冪": 1101,
      "冬": 1102,
      "冯": 1103,
      "冰": 1104,
      "冲": 1105,
      "决": 1106,
      "况": 1107,
      "冶": 1108,
      "冷": 1109,
      "冻": 1110,
      "冼": 1111,
      "冽": 1112,
      "冾": 1113,
      "净": 1114,
      "凄": 1115,
      "准": 1116,
      "凇": 1117,
      "凈": 1118,
      "凉": 1119,
      "凋": 1120,
      "凌": 1121,
      "凍": 1122,
      "减": 1123,
      "凑": 1124,
      "凛": 1125,
      "凜": 1126,
      "凝": 1127,
      "几": 1128,
      "凡": 1129,
      "凤": 1130,
      "処": 1131,
      "凪": 1132,
      "凭": 1133,
      "凯": 1134,
      "凰": 1135,
      "凱": 1136,
      "凳": 1137,
      "凶": 1138,
      "凸": 1139,
      "凹": 1140,
      "出": 1141,
      "击": 1142,
      "函": 1143,
      "凿": 1144,
      "刀": 1145,
      "刁": 1146,
      "刃": 1147,
      "分": 1148,
      "切": 1149,
      "刈": 1150,
      "刊": 1151,
      "刍": 1152,
      "刎": 1153,
      "刑": 1154,
      "划": 1155,
      "列": 1156,
      "刘": 1157,
      "则": 1158,
      "刚": 1159,
      "创": 1160,
      "初": 1161,
      "删": 1162,
      "判": 1163,
      "別": 1164,
      "刨": 1165,
      "利": 1166,
      "刪": 1167,
      "别": 1168,
      "刮": 1169,
      "到": 1170,
      "制": 1171,
      "刷": 1172,
      "券": 1173,
      "刹": 1174,
      "刺": 1175,
      "刻": 1176,
      "刽": 1177,
      "剁": 1178,
      "剂": 1179,
      "剃": 1180,
      "則": 1181,
      "剉": 1182,
      "削": 1183,
      "剋": 1184,
      "剌": 1185,
      "前": 1186,
      "剎": 1187,
      "剐": 1188,
      "剑": 1189,
      "剔": 1190,
      "剖": 1191,
      "剛": 1192,
      "剜": 1193,
      "剝": 1194,
      "剣": 1195,
      "剤": 1196,
      "剥": 1197,
      "剧": 1198,
      "剩": 1199,
      "剪": 1200,
      "副": 1201,
      "割": 1202,
      "創": 1203,
      "剷": 1204,
      "剽": 1205,
      "剿": 1206,
      "劃": 1207,
      "劇": 1208,
      "劈": 1209,
      "劉": 1210,
      "劊": 1211,
      "劍": 1212,
      "劏": 1213,
      "劑": 1214,
      "力": 1215,
      "劝": 1216,
      "办": 1217,
      "功": 1218,
      "加": 1219,
      "务": 1220,
      "劣": 1221,
      "动": 1222,
      "助": 1223,
      "努": 1224,
      "劫": 1225,
      "劭": 1226,
      "励": 1227,
      "劲": 1228,
      "劳": 1229,
      "労": 1230,
      "劵": 1231,
      "効": 1232,
      "劾": 1233,
      "势": 1234,
      "勁": 1235,
      "勃": 1236,
      "勇": 1237,
      "勉": 1238,
      "勋": 1239,
      "勐": 1240,
      "勒": 1241,
      "動": 1242,
      "勖": 1243,
      "勘": 1244,
      "務": 1245,
      "勛": 1246,
      "勝": 1247,
      "勞": 1248,
      "募": 1249,
      "勢": 1250,
      "勤": 1251,
      "勧": 1252,
      "勳": 1253,
      "勵": 1254,
      "勸": 1255,
      "勺": 1256,
      "勻": 1257,
      "勾": 1258,
      "勿": 1259,
      "匀": 1260,
      "包": 1261,
      "匆": 1262,
      "匈": 1263,
      "匍": 1264,
      "匐": 1265,
      "匕": 1266,
      "化": 1267,
      "北": 1268,
      "匙": 1269,
      "匝": 1270,
      "匠": 1271,
      "匡": 1272,
      "匣": 1273,
      "匪": 1274,
      "匮": 1275,
      "匯": 1276,
      "匱": 1277,
      "匹": 1278,
      "区": 1279,
      "医": 1280,
      "匾": 1281,
      "匿": 1282,
      "區": 1283,
      "十": 1284,
      "千": 1285,
      "卅": 1286,
      "升": 1287,
      "午": 1288,
      "卉": 1289,
      "半": 1290,
      "卍": 1291,
      "华": 1292,
      "协": 1293,
      "卑": 1294,
      "卒": 1295,
      "卓": 1296,
      "協": 1297,
      "单": 1298,
      "卖": 1299,
      "南": 1300,
      "単": 1301,
      "博": 1302,
      "卜": 1303,
      "卞": 1304,
      "卟": 1305,
      "占": 1306,
      "卡": 1307,
      "卢": 1308,
      "卤": 1309,
      "卦": 1310,
      "卧": 1311,
      "卫": 1312,
      "卮": 1313,
      "卯": 1314,
      "印": 1315,
      "危": 1316,
      "即": 1317,
      "却": 1318,
      "卵": 1319,
      "卷": 1320,
      "卸": 1321,
      "卻": 1322,
      "卿": 1323,
      "厂": 1324,
      "厄": 1325,
      "厅": 1326,
      "历": 1327,
      "厉": 1328,
      "压": 1329,
      "厌": 1330,
      "厕": 1331,
      "厘": 1332,
      "厚": 1333,
      "厝": 1334,
      "原": 1335,
      "厢": 1336,
      "厥": 1337,
      "厦": 1338,
      "厨": 1339,
      "厩": 1340,
      "厭": 1341,
      "厮": 1342,
      "厲": 1343,
      "厳": 1344,
      "去": 1345,
      "县": 1346,
      "叁": 1347,
      "参": 1348,
      "參": 1349,
      "又": 1350,
      "叉": 1351,
      "及": 1352,
      "友": 1353,
      "双": 1354,
      "反": 1355,
      "収": 1356,
      "发": 1357,
      "叔": 1358,
      "取": 1359,
      "受": 1360,
      "变": 1361,
      "叙": 1362,
      "叛": 1363,
      "叟": 1364,
      "叠": 1365,
      "叡": 1366,
      "叢": 1367,
      "口": 1368,
      "古": 1369,
      "句": 1370,
      "另": 1371,
      "叨": 1372,
      "叩": 1373,
      "只": 1374,
      "叫": 1375,
      "召": 1376,
      "叭": 1377,
      "叮": 1378,
      "可": 1379,
      "台": 1380,
      "叱": 1381,
      "史": 1382,
      "右": 1383,
      "叵": 1384,
      "叶": 1385,
      "号": 1386,
      "司": 1387,
      "叹": 1388,
      "叻": 1389,
      "叼": 1390,
      "叽": 1391,
      "吁": 1392,
      "吃": 1393,
      "各": 1394,
      "吆": 1395,
      "合": 1396,
      "吉": 1397,
      "吊": 1398,
      "吋": 1399,
      "同": 1400,
      "名": 1401,
      "后": 1402,
      "吏": 1403,
      "吐": 1404,
      "向": 1405,
      "吒": 1406,
      "吓": 1407,
      "吕": 1408,
      "吖": 1409,
      "吗": 1410,
      "君": 1411,
      "吝": 1412,
      "吞": 1413,
      "吟": 1414,
      "吠": 1415,
      "吡": 1416,
      "否": 1417,
      "吧": 1418,
      "吨": 1419,
      "吩": 1420,
      "含": 1421,
      "听": 1422,
      "吭": 1423,
      "吮": 1424,
      "启": 1425,
      "吱": 1426,
      "吳": 1427,
      "吴": 1428,
      "吵": 1429,
      "吶": 1430,
      "吸": 1431,
      "吹": 1432,
      "吻": 1433,
      "吼": 1434,
      "吽": 1435,
      "吾": 1436,
      "呀": 1437,
      "呂": 1438,
      "呃": 1439,
      "呆": 1440,
      "呈": 1441,
      "告": 1442,
      "呋": 1443,
      "呎": 1444,
      "呐": 1445,
      "呓": 1446,
      "呕": 1447,
      "呗": 1448,
      "员": 1449,
      "呛": 1450,
      "呜": 1451,
      "呢": 1452,
      "呤": 1453,
      "呦": 1454,
      "周": 1455,
      "呱": 1456,
      "呲": 1457,
      "味": 1458,
      "呵": 1459,
      "呷": 1460,
      "呸": 1461,
      "呻": 1462,
      "呼": 1463,
      "命": 1464,
      "咀": 1465,
      "咁": 1466,
      "咂": 1467,
      "咄": 1468,
      "咆": 1469,
      "咋": 1470,
      "和": 1471,
      "咎": 1472,
      "咏": 1473,
      "咐": 1474,
      "咒": 1475,
      "咔": 1476,
      "咕": 1477,
      "咖": 1478,
      "咗": 1479,
      "咘": 1480,
      "咙": 1481,
      "咚": 1482,
      "咛": 1483,
      "咣": 1484,
      "咤": 1485,
      "咦": 1486,
      "咧": 1487,
      "咨": 1488,
      "咩": 1489,
      "咪": 1490,
      "咫": 1491,
      "咬": 1492,
      "咭": 1493,
      "咯": 1494,
      "咱": 1495,
      "咲": 1496,
      "咳": 1497,
      "咸": 1498,
      "咻": 1499,
      "咽": 1500,
      "咿": 1501,
      "哀": 1502,
      "品": 1503,
      "哂": 1504,
      "哄": 1505,
      "哆": 1506,
      "哇": 1507,
      "哈": 1508,
      "哉": 1509,
      "哋": 1510,
      "哌": 1511,
      "响": 1512,
      "哎": 1513,
      "哏": 1514,
      "哐": 1515,
      "哑": 1516,
      "哒": 1517,
      "哔": 1518,
      "哗": 1519,
      "哟": 1520,
      "員": 1521,
      "哥": 1522,
      "哦": 1523,
      "哧": 1524,
      "哨": 1525,
      "哩": 1526,
      "哪": 1527,
      "哭": 1528,
      "哮": 1529,
      "哲": 1530,
      "哺": 1531,
      "哼": 1532,
      "哽": 1533,
      "唁": 1534,
      "唄": 1535,
      "唆": 1536,
      "唇": 1537,
      "唉": 1538,
      "唏": 1539,
      "唐": 1540,
      "唑": 1541,
      "唔": 1542,
      "唠": 1543,
      "唤": 1544,
      "唧": 1545,
      "唬": 1546,
      "售": 1547,
      "唯": 1548,
      "唰": 1549,
      "唱": 1550,
      "唳": 1551,
      "唷": 1552,
      "唸": 1553,
      "唾": 1554,
      "啃": 1555,
      "啄": 1556,
      "商": 1557,
      "啉": 1558,
      "啊": 1559,
      "問": 1560,
      "啓": 1561,
      "啕": 1562,
      "啖": 1563,
      "啜": 1564,
      "啞": 1565,
      "啟": 1566,
      "啡": 1567,
      "啤": 1568,
      "啥": 1569,
      "啦": 1570,
      "啧": 1571,
      "啪": 1572,
      "啫": 1573,
      "啬": 1574,
      "啮": 1575,
      "啰": 1576,
      "啱": 1577,
      "啲": 1578,
      "啵": 1579,
      "啶": 1580,
      "啷": 1581,
      "啸": 1582,
      "啻": 1583,
      "啼": 1584,
      "啾": 1585,
      "喀": 1586,
      "喂": 1587,
      "喃": 1588,
      "善": 1589,
      "喆": 1590,
      "喇": 1591,
      "喉": 1592,
      "喊": 1593,
      "喋": 1594,
      "喎": 1595,
      "喏": 1596,
      "喔": 1597,
      "喘": 1598,
      "喙": 1599,
      "喚": 1600,
      "喜": 1601,
      "喝": 1602,
      "喟": 1603,
      "喧": 1604,
      "喪": 1605,
      "喫": 1606,
      "喬": 1607,
      "單": 1608,
      "喰": 1609,
      "喱": 1610,
      "喲": 1611,
      "喳": 1612,
      "喵": 1613,
      "営": 1614,
      "喷": 1615,
      "喹": 1616,
      "喺": 1617,
      "喻": 1618,
      "喽": 1619,
      "嗅": 1620,
      "嗆": 1621,
      "嗇": 1622,
      "嗎": 1623,
      "嗑": 1624,
      "嗒": 1625,
      "嗓": 1626,
      "嗔": 1627,
      "嗖": 1628,
      "嗚": 1629,
      "嗜": 1630,
      "嗝": 1631,
      "嗟": 1632,
      "嗡": 1633,
      "嗣": 1634,
      "嗤": 1635,
      "嗦": 1636,
      "嗨": 1637,
      "嗪": 1638,
      "嗬": 1639,
      "嗯": 1640,
      "嗰": 1641,
      "嗲": 1642,
      "嗳": 1643,
      "嗶": 1644,
      "嗷": 1645,
      "嗽": 1646,
      "嘀": 1647,
      "嘅": 1648,
      "嘆": 1649,
      "嘈": 1650,
      "嘉": 1651,
      "嘌": 1652,
      "嘍": 1653,
      "嘎": 1654,
      "嘔": 1655,
      "嘖": 1656,
      "嘗": 1657,
      "嘘": 1658,
      "嘚": 1659,
      "嘛": 1660,
      "嘜": 1661,
      "嘞": 1662,
      "嘟": 1663,
      "嘢": 1664,
      "嘣": 1665,
      "嘤": 1666,
      "嘧": 1667,
      "嘩": 1668,
      "嘭": 1669,
      "嘮": 1670,
      "嘯": 1671,
      "嘰": 1672,
      "嘱": 1673,
      "嘲": 1674,
      "嘴": 1675,
      "嘶": 1676,
      "嘸": 1677,
      "嘹": 1678,
      "嘻": 1679,
      "嘿": 1680,
      "噁": 1681,
      "噌": 1682,
      "噎": 1683,
      "噓": 1684,
      "噔": 1685,
      "噗": 1686,
      "噙": 1687,
      "噜": 1688,
      "噠": 1689,
      "噢": 1690,
      "噤": 1691,
      "器": 1692,
      "噩": 1693,
      "噪": 1694,
      "噬": 1695,
      "噱": 1696,
      "噴": 1697,
      "噶": 1698,
      "噸": 1699,
      "噹": 1700,
      "噻": 1701,
      "噼": 1702,
      "嚀": 1703,
      "嚇": 1704,
      "嚎": 1705,
      "嚏": 1706,
      "嚐": 1707,
      "嚓": 1708,
      "嚕": 1709,
      "嚟": 1710,
      "嚣": 1711,
      "嚥": 1712,
      "嚨": 1713,
      "嚮": 1714,
      "嚴": 1715,
      "嚷": 1716,
      "嚼": 1717,
      "囂": 1718,
      "囉": 1719,
      "囊": 1720,
      "囍": 1721,
      "囑": 1722,
      "囔": 1723,
      "囗": 1724,
      "囚": 1725,
      "四": 1726,
      "囝": 1727,
      "回": 1728,
      "囟": 1729,
      "因": 1730,
      "囡": 1731,
      "团": 1732,
      "団": 1733,
      "囤": 1734,
      "囧": 1735,
      "囪": 1736,
      "囫": 1737,
      "园": 1738,
      "困": 1739,
      "囱": 1740,
      "囲": 1741,
      "図": 1742,
      "围": 1743,
      "囹": 1744,
      "固": 1745,
      "国": 1746,
      "图": 1747,
      "囿": 1748,
      "圃": 1749,
      "圄": 1750,
      "圆": 1751,
      "圈": 1752,
      "國": 1753,
      "圍": 1754,
      "圏": 1755,
      "園": 1756,
      "圓": 1757,
      "圖": 1758,
      "團": 1759,
      "圜": 1760,
      "土": 1761,
      "圣": 1762,
      "圧": 1763,
      "在": 1764,
      "圩": 1765,
      "圭": 1766,
      "地": 1767,
      "圳": 1768,
      "场": 1769,
      "圻": 1770,
      "圾": 1771,
      "址": 1772,
      "坂": 1773,
      "均": 1774,
      "坊": 1775,
      "坍": 1776,
      "坎": 1777,
      "坏": 1778,
      "坐": 1779,
      "坑": 1780,
      "块": 1781,
      "坚": 1782,
      "坛": 1783,
      "坝": 1784,
      "坞": 1785,
      "坟": 1786,
      "坠": 1787,
      "坡": 1788,
      "坤": 1789,
      "坦": 1790,
      "坨": 1791,
      "坪": 1792,
      "坯": 1793,
      "坳": 1794,
      "坵": 1795,
      "坷": 1796,
      "垂": 1797,
      "垃": 1798,
      "垄": 1799,
      "型": 1800,
      "垒": 1801,
      "垚": 1802,
      "垛": 1803,
      "垠": 1804,
      "垢": 1805,
      "垣": 1806,
      "垦": 1807,
      "垩": 1808,
      "垫": 1809,
      "垭": 1810,
      "垮": 1811,
      "垵": 1812,
      "埂": 1813,
      "埃": 1814,
      "埋": 1815,
      "城": 1816,
      "埔": 1817,
      "埕": 1818,
      "埗": 1819,
      "域": 1820,
      "埠": 1821,
      "埤": 1822,
      "埵": 1823,
      "執": 1824,
      "埸": 1825,
      "培": 1826,
      "基": 1827,
      "埼": 1828,
      "堀": 1829,
      "堂": 1830,
      "堃": 1831,
      "堅": 1832,
      "堆": 1833,
      "堇": 1834,
      "堑": 1835,
      "堕": 1836,
      "堙": 1837,
      "堡": 1838,
      "堤": 1839,
      "堪": 1840,
      "堯": 1841,
      "堰": 1842,
      "報": 1843,
      "場": 1844,
      "堵": 1845,
      "堺": 1846,
      "堿": 1847,
      "塊": 1848,
      "塌": 1849,
      "塑": 1850,
      "塔": 1851,
      "塗": 1852,
      "塘": 1853,
      "塚": 1854,
      "塞": 1855,
      "塢": 1856,
      "塩": 1857,
      "填": 1858,
      "塬": 1859,
      "塭": 1860,
      "塵": 1861,
      "塾": 1862,
      "墀": 1863,
      "境": 1864,
      "墅": 1865,
      "墉": 1866,
      "墊": 1867,
      "墒": 1868,
      "墓": 1869,
      "増": 1870,
      "墘": 1871,
      "墙": 1872,
      "墜": 1873,
      "增": 1874,
      "墟": 1875,
      "墨": 1876,
      "墩": 1877,
      "墮": 1878,
      "墳": 1879,
      "墻": 1880,
      "墾": 1881,
      "壁": 1882,
      "壅": 1883,
      "壆": 1884,
      "壇": 1885,
      "壊": 1886,
      "壑": 1887,
      "壓": 1888,
      "壕": 1889,
      "壘": 1890,
      "壞": 1891,
      "壟": 1892,
      "壢": 1893,
      "壤": 1894,
      "壩": 1895,
      "士": 1896,
      "壬": 1897,
      "壮": 1898,
      "壯": 1899,
      "声": 1900,
      "売": 1901,
      "壳": 1902,
      "壶": 1903,
      "壹": 1904,
      "壺": 1905,
      "壽": 1906,
      "处": 1907,
      "备": 1908,
      "変": 1909,
      "复": 1910,
      "夏": 1911,
      "夔": 1912,
      "夕": 1913,
      "外": 1914,
      "夙": 1915,
      "多": 1916,
      "夜": 1917,
      "够": 1918,
      "夠": 1919,
      "夢": 1920,
      "夥": 1921,
      "大": 1922,
      "天": 1923,
      "太": 1924,
      "夫": 1925,
      "夭": 1926,
      "央": 1927,
      "夯": 1928,
      "失": 1929,
      "头": 1930,
      "夷": 1931,
      "夸": 1932,
      "夹": 1933,
      "夺": 1934,
      "夾": 1935,
      "奂": 1936,
      "奄": 1937,
      "奇": 1938,
      "奈": 1939,
      "奉": 1940,
      "奋": 1941,
      "奎": 1942,
      "奏": 1943,
      "奐": 1944,
      "契": 1945,
      "奔": 1946,
      "奕": 1947,
      "奖": 1948,
      "套": 1949,
      "奘": 1950,
      "奚": 1951,
      "奠": 1952,
      "奢": 1953,
      "奥": 1954,
      "奧": 1955,
      "奪": 1956,
      "奬": 1957,
      "奮": 1958,
      "女": 1959,
      "奴": 1960,
      "奶": 1961,
      "奸": 1962,
      "她": 1963,
      "好": 1964,
      "如": 1965,
      "妃": 1966,
      "妄": 1967,
      "妆": 1968,
      "妇": 1969,
      "妈": 1970,
      "妊": 1971,
      "妍": 1972,
      "妒": 1973,
      "妓": 1974,
      "妖": 1975,
      "妘": 1976,
      "妙": 1977,
      "妝": 1978,
      "妞": 1979,
      "妣": 1980,
      "妤": 1981,
      "妥": 1982,
      "妨": 1983,
      "妩": 1984,
      "妪": 1985,
      "妮": 1986,
      "妲": 1987,
      "妳": 1988,
      "妹": 1989,
      "妻": 1990,
      "妾": 1991,
      "姆": 1992,
      "姉": 1993,
      "姊": 1994,
      "始": 1995,
      "姍": 1996,
      "姐": 1997,
      "姑": 1998,
      "姒": 1999,
      "姓": 2000,
      "委": 2001,
      "姗": 2002,
      "姚": 2003,
      "姜": 2004,
      "姝": 2005,
      "姣": 2006,
      "姥": 2007,
      "姦": 2008,
      "姨": 2009,
      "姪": 2010,
      "姫": 2011,
      "姬": 2012,
      "姹": 2013,
      "姻": 2014,
      "姿": 2015,
      "威": 2016,
      "娃": 2017,
      "娄": 2018,
      "娅": 2019,
      "娆": 2020,
      "娇": 2021,
      "娉": 2022,
      "娑": 2023,
      "娓": 2024,
      "娘": 2025,
      "娛": 2026,
      "娜": 2027,
      "娟": 2028,
      "娠": 2029,
      "娣": 2030,
      "娥": 2031,
      "娩": 2032,
      "娱": 2033,
      "娲": 2034,
      "娴": 2035,
      "娶": 2036,
      "娼": 2037,
      "婀": 2038,
      "婁": 2039,
      "婆": 2040,
      "婉": 2041,
      "婊": 2042,
      "婕": 2043,
      "婚": 2044,
      "婢": 2045,
      "婦": 2046,
      "婧": 2047,
      "婪": 2048,
      "婭": 2049,
      "婴": 2050,
      "婵": 2051,
      "婶": 2052,
      "婷": 2053,
      "婺": 2054,
      "婿": 2055,
      "媒": 2056,
      "媚": 2057,
      "媛": 2058,
      "媞": 2059,
      "媧": 2060,
      "媲": 2061,
      "媳": 2062,
      "媽": 2063,
      "媾": 2064,
      "嫁": 2065,
      "嫂": 2066,
      "嫉": 2067,
      "嫌": 2068,
      "嫑": 2069,
      "嫔": 2070,
      "嫖": 2071,
      "嫘": 2072,
      "嫚": 2073,
      "嫡": 2074,
      "嫣": 2075,
      "嫦": 2076,
      "嫩": 2077,
      "嫲": 2078,
      "嫵": 2079,
      "嫻": 2080,
      "嬅": 2081,
      "嬉": 2082,
      "嬌": 2083,
      "嬗": 2084,
      "嬛": 2085,
      "嬢": 2086,
      "嬤": 2087,
      "嬪": 2088,
      "嬰": 2089,
      "嬴": 2090,
      "嬷": 2091,
      "嬸": 2092,
      "嬿": 2093,
      "孀": 2094,
      "孃": 2095,
      "子": 2096,
      "孑": 2097,
      "孔": 2098,
      "孕": 2099,
      "孖": 2100,
      "字": 2101,
      "存": 2102,
      "孙": 2103,
      "孚": 2104,
      "孛": 2105,
      "孜": 2106,
      "孝": 2107,
      "孟": 2108,
      "孢": 2109,
      "季": 2110,
      "孤": 2111,
      "学": 2112,
      "孩": 2113,
      "孪": 2114,
      "孫": 2115,
      "孬": 2116,
      "孰": 2117,
      "孱": 2118,
      "孳": 2119,
      "孵": 2120,
      "學": 2121,
      "孺": 2122,
      "孽": 2123,
      "孿": 2124,
      "宁": 2125,
      "它": 2126,
      "宅": 2127,
      "宇": 2128,
      "守": 2129,
      "安": 2130,
      "宋": 2131,
      "完": 2132,
      "宏": 2133,
      "宓": 2134,
      "宕": 2135,
      "宗": 2136,
      "官": 2137,
      "宙": 2138,
      "定": 2139,
      "宛": 2140,
      "宜": 2141,
      "宝": 2142,
      "实": 2143,
      "実": 2144,
      "宠": 2145,
      "审": 2146,
      "客": 2147,
      "宣": 2148,
      "室": 2149,
      "宥": 2150,
      "宦": 2151,
      "宪": 2152,
      "宫": 2153,
      "宮": 2154,
      "宰": 2155,
      "害": 2156,
      "宴": 2157,
      "宵": 2158,
      "家": 2159,
      "宸": 2160,
      "容": 2161,
      "宽": 2162,
      "宾": 2163,
      "宿": 2164,
      "寂": 2165,
      "寄": 2166,
      "寅": 2167,
      "密": 2168,
      "寇": 2169,
      "富": 2170,
      "寐": 2171,
      "寒": 2172,
      "寓": 2173,
      "寛": 2174,
      "寝": 2175,
      "寞": 2176,
      "察": 2177,
      "寡": 2178,
      "寢": 2179,
      "寥": 2180,
      "實": 2181,
      "寧": 2182,
      "寨": 2183,
      "審": 2184,
      "寫": 2185,
      "寬": 2186,
      "寮": 2187,
      "寰": 2188,
      "寵": 2189,
      "寶": 2190,
      "寸": 2191,
      "对": 2192,
      "寺": 2193,
      "寻": 2194,
      "导": 2195,
      "対": 2196,
      "寿": 2197,
      "封": 2198,
      "専": 2199,
      "射": 2200,
      "将": 2201,
      "將": 2202,
      "專": 2203,
      "尉": 2204,
      "尊": 2205,
      "尋": 2206,
      "對": 2207,
      "導": 2208,
      "小": 2209,
      "少": 2210,
      "尔": 2211,
      "尕": 2212,
      "尖": 2213,
      "尘": 2214,
      "尚": 2215,
      "尝": 2216,
      "尤": 2217,
      "尧": 2218,
      "尬": 2219,
      "就": 2220,
      "尴": 2221,
      "尷": 2222,
      "尸": 2223,
      "尹": 2224,
      "尺": 2225,
      "尻": 2226,
      "尼": 2227,
      "尽": 2228,
      "尾": 2229,
      "尿": 2230,
      "局": 2231,
      "屁": 2232,
      "层": 2233,
      "屄": 2234,
      "居": 2235,
      "屆": 2236,
      "屈": 2237,
      "屉": 2238,
      "届": 2239,
      "屋": 2240,
      "屌": 2241,
      "屍": 2242,
      "屎": 2243,
      "屏": 2244,
      "屐": 2245,
      "屑": 2246,
      "展": 2247,
      "屜": 2248,
      "属": 2249,
      "屠": 2250,
      "屡": 2251,
      "屢": 2252,
      "層": 2253,
      "履": 2254,
      "屬": 2255,
      "屯": 2256,
      "山": 2257,
      "屹": 2258,
      "屿": 2259,
      "岀": 2260,
      "岁": 2261,
      "岂": 2262,
      "岌": 2263,
      "岐": 2264,
      "岑": 2265,
      "岔": 2266,
      "岖": 2267,
      "岗": 2268,
      "岘": 2269,
      "岙": 2270,
      "岚": 2271,
      "岛": 2272,
      "岡": 2273,
      "岩": 2274,
      "岫": 2275,
      "岬": 2276,
      "岭": 2277,
      "岱": 2278,
      "岳": 2279,
      "岷": 2280,
      "岸": 2281,
      "峇": 2282,
      "峋": 2283,
      "峒": 2284,
      "峙": 2285,
      "峡": 2286,
      "峤": 2287,
      "峥": 2288,
      "峦": 2289,
      "峨": 2290,
      "峪": 2291,
      "峭": 2292,
      "峯": 2293,
      "峰": 2294,
      "峴": 2295,
      "島": 2296,
      "峻": 2297,
      "峽": 2298,
      "崁": 2299,
      "崂": 2300,
      "崆": 2301,
      "崇": 2302,
      "崎": 2303,
      "崑": 2304,
      "崔": 2305,
      "崖": 2306,
      "崗": 2307,
      "崙": 2308,
      "崛": 2309,
      "崧": 2310,
      "崩": 2311,
      "崭": 2312,
      "崴": 2313,
      "崽": 2314,
      "嵇": 2315,
      "嵊": 2316,
      "嵋": 2317,
      "嵌": 2318,
      "嵐": 2319,
      "嵘": 2320,
      "嵩": 2321,
      "嵬": 2322,
      "嵯": 2323,
      "嶂": 2324,
      "嶄": 2325,
      "嶇": 2326,
      "嶋": 2327,
      "嶙": 2328,
      "嶺": 2329,
      "嶼": 2330,
      "嶽": 2331,
      "巅": 2332,
      "巍": 2333,
      "巒": 2334,
      "巔": 2335,
      "巖": 2336,
      "川": 2337,
      "州": 2338,
      "巡": 2339,
      "巢": 2340,
      "工": 2341,
      "左": 2342,
      "巧": 2343,
      "巨": 2344,
      "巩": 2345,
      "巫": 2346,
      "差": 2347,
      "己": 2348,
      "已": 2349,
      "巳": 2350,
      "巴": 2351,
      "巷": 2352,
      "巻": 2353,
      "巽": 2354,
      "巾": 2355,
      "巿": 2356,
      "币": 2357,
      "市": 2358,
      "布": 2359,
      "帅": 2360,
      "帆": 2361,
      "师": 2362,
      "希": 2363,
      "帐": 2364,
      "帑": 2365,
      "帕": 2366,
      "帖": 2367,
      "帘": 2368,
      "帚": 2369,
      "帛": 2370,
      "帜": 2371,
      "帝": 2372,
      "帥": 2373,
      "带": 2374,
      "帧": 2375,
      "師": 2376,
      "席": 2377,
      "帮": 2378,
      "帯": 2379,
      "帰": 2380,
      "帳": 2381,
      "帶": 2382,
      "帷": 2383,
      "常": 2384,
      "帼": 2385,
      "帽": 2386,
      "幀": 2387,
      "幂": 2388,
      "幄": 2389,
      "幅": 2390,
      "幌": 2391,
      "幔": 2392,
      "幕": 2393,
      "幟": 2394,
      "幡": 2395,
      "幢": 2396,
      "幣": 2397,
      "幫": 2398,
      "干": 2399,
      "平": 2400,
      "年": 2401,
      "并": 2402,
      "幸": 2403,
      "幹": 2404,
      "幺": 2405,
      "幻": 2406,
      "幼": 2407,
      "幽": 2408,
      "幾": 2409,
      "广": 2410,
      "庁": 2411,
      "広": 2412,
      "庄": 2413,
      "庆": 2414,
      "庇": 2415,
      "床": 2416,
      "序": 2417,
      "庐": 2418,
      "库": 2419,
      "应": 2420,
      "底": 2421,
      "庖": 2422,
      "店": 2423,
      "庙": 2424,
      "庚": 2425,
      "府": 2426,
      "庞": 2427,
      "废": 2428,
      "庠": 2429,
      "度": 2430,
      "座": 2431,
      "庫": 2432,
      "庭": 2433,
      "庵": 2434,
      "庶": 2435,
      "康": 2436,
      "庸": 2437,
      "庹": 2438,
      "庾": 2439,
      "廁": 2440,
      "廂": 2441,
      "廃": 2442,
      "廈": 2443,
      "廉": 2444,
      "廊": 2445,
      "廓": 2446,
      "廖": 2447,
      "廚": 2448,
      "廝": 2449,
      "廟": 2450,
      "廠": 2451,
      "廢": 2452,
      "廣": 2453,
      "廬": 2454,
      "廳": 2455,
      "延": 2456,
      "廷": 2457,
      "建": 2458,
      "廿": 2459,
      "开": 2460,
      "弁": 2461,
      "异": 2462,
      "弃": 2463,
      "弄": 2464,
      "弈": 2465,
      "弊": 2466,
      "弋": 2467,
      "式": 2468,
      "弑": 2469,
      "弒": 2470,
      "弓": 2471,
      "弔": 2472,
      "引": 2473,
      "弗": 2474,
      "弘": 2475,
      "弛": 2476,
      "弟": 2477,
      "张": 2478,
      "弥": 2479,
      "弦": 2480,
      "弧": 2481,
      "弩": 2482,
      "弭": 2483,
      "弯": 2484,
      "弱": 2485,
      "張": 2486,
      "強": 2487,
      "弹": 2488,
      "强": 2489,
      "弼": 2490,
      "弾": 2491,
      "彅": 2492,
      "彆": 2493,
      "彈": 2494,
      "彌": 2495,
      "彎": 2496,
      "归": 2497,
      "当": 2498,
      "录": 2499,
      "彗": 2500,
      "彙": 2501,
      "彝": 2502,
      "形": 2503,
      "彤": 2504,
      "彥": 2505,
      "彦": 2506,
      "彧": 2507,
      "彩": 2508,
      "彪": 2509,
      "彫": 2510,
      "彬": 2511,
      "彭": 2512,
      "彰": 2513,
      "影": 2514,
      "彷": 2515,
      "役": 2516,
      "彻": 2517,
      "彼": 2518,
      "彿": 2519,
      "往": 2520,
      "征": 2521,
      "径": 2522,
      "待": 2523,
      "徇": 2524,
      "很": 2525,
      "徉": 2526,
      "徊": 2527,
      "律": 2528,
      "後": 2529,
      "徐": 2530,
      "徑": 2531,
      "徒": 2532,
      "従": 2533,
      "徕": 2534,
      "得": 2535,
      "徘": 2536,
      "徙": 2537,
      "徜": 2538,
      "從": 2539,
      "徠": 2540,
      "御": 2541,
      "徨": 2542,
      "復": 2543,
      "循": 2544,
      "徬": 2545,
      "微": 2546,
      "徳": 2547,
      "徴": 2548,
      "徵": 2549,
      "德": 2550,
      "徹": 2551,
      "徼": 2552,
      "徽": 2553,
      "心": 2554,
      "必": 2555,
      "忆": 2556,
      "忌": 2557,
      "忍": 2558,
      "忏": 2559,
      "忐": 2560,
      "忑": 2561,
      "忒": 2562,
      "忖": 2563,
      "志": 2564,
      "忘": 2565,
      "忙": 2566,
      "応": 2567,
      "忠": 2568,
      "忡": 2569,
      "忤": 2570,
      "忧": 2571,
      "忪": 2572,
      "快": 2573,
      "忱": 2574,
      "念": 2575,
      "忻": 2576,
      "忽": 2577,
      "忿": 2578,
      "怀": 2579,
      "态": 2580,
      "怂": 2581,
      "怅": 2582,
      "怆": 2583,
      "怎": 2584,
      "怏": 2585,
      "怒": 2586,
      "怔": 2587,
      "怕": 2588,
      "怖": 2589,
      "怙": 2590,
      "怜": 2591,
      "思": 2592,
      "怠": 2593,
      "怡": 2594,
      "急": 2595,
      "怦": 2596,
      "性": 2597,
      "怨": 2598,
      "怪": 2599,
      "怯": 2600,
      "怵": 2601,
      "总": 2602,
      "怼": 2603,
      "恁": 2604,
      "恃": 2605,
      "恆": 2606,
      "恋": 2607,
      "恍": 2608,
      "恐": 2609,
      "恒": 2610,
      "恕": 2611,
      "恙": 2612,
      "恚": 2613,
      "恢": 2614,
      "恣": 2615,
      "恤": 2616,
      "恥": 2617,
      "恨": 2618,
      "恩": 2619,
      "恪": 2620,
      "恫": 2621,
      "恬": 2622,
      "恭": 2623,
      "息": 2624,
      "恰": 2625,
      "恳": 2626,
      "恵": 2627,
      "恶": 2628,
      "恸": 2629,
      "恺": 2630,
      "恻": 2631,
      "恼": 2632,
      "恿": 2633,
      "悄": 2634,
      "悅": 2635,
      "悉": 2636,
      "悌": 2637,
      "悍": 2638,
      "悔": 2639,
      "悖": 2640,
      "悚": 2641,
      "悟": 2642,
      "悠": 2643,
      "患": 2644,
      "悦": 2645,
      "您": 2646,
      "悩": 2647,
      "悪": 2648,
      "悬": 2649,
      "悯": 2650,
      "悱": 2651,
      "悲": 2652,
      "悴": 2653,
      "悵": 2654,
      "悶": 2655,
      "悸": 2656,
      "悻": 2657,
      "悼": 2658,
      "悽": 2659,
      "情": 2660,
      "惆": 2661,
      "惇": 2662,
      "惊": 2663,
      "惋": 2664,
      "惑": 2665,
      "惕": 2666,
      "惘": 2667,
      "惚": 2668,
      "惜": 2669,
      "惟": 2670,
      "惠": 2671,
      "惡": 2672,
      "惦": 2673,
      "惧": 2674,
      "惨": 2675,
      "惩": 2676,
      "惫": 2677,
      "惬": 2678,
      "惭": 2679,
      "惮": 2680,
      "惯": 2681,
      "惰": 2682,
      "惱": 2683,
      "想": 2684,
      "惴": 2685,
      "惶": 2686,
      "惹": 2687,
      "惺": 2688,
      "愁": 2689,
      "愆": 2690,
      "愈": 2691,
      "愉": 2692,
      "愍": 2693,
      "意": 2694,
      "愕": 2695,
      "愚": 2696,
      "愛": 2697,
      "愜": 2698,
      "感": 2699,
      "愣": 2700,
      "愤": 2701,
      "愧": 2702,
      "愫": 2703,
      "愷": 2704,
      "愿": 2705,
      "慄": 2706,
      "慈": 2707,
      "態": 2708,
      "慌": 2709,
      "慎": 2710,
      "慑": 2711,
      "慕": 2712,
      "慘": 2713,
      "慚": 2714,
      "慟": 2715,
      "慢": 2716,
      "慣": 2717,
      "慧": 2718,
      "慨": 2719,
      "慫": 2720,
      "慮": 2721,
      "慰": 2722,
      "慳": 2723,
      "慵": 2724,
      "慶": 2725,
      "慷": 2726,
      "慾": 2727,
      "憂": 2728,
      "憊": 2729,
      "憋": 2730,
      "憎": 2731,
      "憐": 2732,
      "憑": 2733,
      "憔": 2734,
      "憚": 2735,
      "憤": 2736,
      "憧": 2737,
      "憨": 2738,
      "憩": 2739,
      "憫": 2740,
      "憬": 2741,
      "憲": 2742,
      "憶": 2743,
      "憾": 2744,
      "懂": 2745,
      "懇": 2746,
      "懈": 2747,
      "應": 2748,
      "懊": 2749,
      "懋": 2750,
      "懑": 2751,
      "懒": 2752,
      "懦": 2753,
      "懲": 2754,
      "懵": 2755,
      "懶": 2756,
      "懷": 2757,
      "懸": 2758,
      "懺": 2759,
      "懼": 2760,
      "懾": 2761,
      "懿": 2762,
      "戀": 2763,
      "戈": 2764,
      "戊": 2765,
      "戌": 2766,
      "戍": 2767,
      "戎": 2768,
      "戏": 2769,
      "成": 2770,
      "我": 2771,
      "戒": 2772,
      "戕": 2773,
      "或": 2774,
      "战": 2775,
      "戚": 2776,
      "戛": 2777,
      "戟": 2778,
      "戡": 2779,
      "戦": 2780,
      "截": 2781,
      "戬": 2782,
      "戮": 2783,
      "戰": 2784,
      "戲": 2785,
      "戳": 2786,
      "戴": 2787,
      "戶": 2788,
      "户": 2789,
      "戸": 2790,
      "戻": 2791,
      "戾": 2792,
      "房": 2793,
      "所": 2794,
      "扁": 2795,
      "扇": 2796,
      "扈": 2797,
      "扉": 2798,
      "手": 2799,
      "才": 2800,
      "扎": 2801,
      "扑": 2802,
      "扒": 2803,
      "打": 2804,
      "扔": 2805,
      "払": 2806,
      "托": 2807,
      "扛": 2808,
      "扣": 2809,
      "扦": 2810,
      "执": 2811,
      "扩": 2812,
      "扪": 2813,
      "扫": 2814,
      "扬": 2815,
      "扭": 2816,
      "扮": 2817,
      "扯": 2818,
      "扰": 2819,
      "扱": 2820,
      "扳": 2821,
      "扶": 2822,
      "批": 2823,
      "扼": 2824,
      "找": 2825,
      "承": 2826,
      "技": 2827,
      "抄": 2828,
      "抉": 2829,
      "把": 2830,
      "抑": 2831,
      "抒": 2832,
      "抓": 2833,
      "投": 2834,
      "抖": 2835,
      "抗": 2836,
      "折": 2837,
      "抚": 2838,
      "抛": 2839,
      "抜": 2840,
      "択": 2841,
      "抟": 2842,
      "抠": 2843,
      "抡": 2844,
      "抢": 2845,
      "护": 2846,
      "报": 2847,
      "抨": 2848,
      "披": 2849,
      "抬": 2850,
      "抱": 2851,
      "抵": 2852,
      "抹": 2853,
      "押": 2854,
      "抽": 2855,
      "抿": 2856,
      "拂": 2857,
      "拄": 2858,
      "担": 2859,
      "拆": 2860,
      "拇": 2861,
      "拈": 2862,
      "拉": 2863,
      "拋": 2864,
      "拌": 2865,
      "拍": 2866,
      "拎": 2867,
      "拐": 2868,
      "拒": 2869,
      "拓": 2870,
      "拔": 2871,
      "拖": 2872,
      "拗": 2873,
      "拘": 2874,
      "拙": 2875,
      "拚": 2876,
      "招": 2877,
      "拜": 2878,
      "拟": 2879,
      "拡": 2880,
      "拢": 2881,
      "拣": 2882,
      "拥": 2883,
      "拦": 2884,
      "拧": 2885,
      "拨": 2886,
      "择": 2887,
      "括": 2888,
      "拭": 2889,
      "拮": 2890,
      "拯": 2891,
      "拱": 2892,
      "拳": 2893,
      "拴": 2894,
      "拷": 2895,
      "拼": 2896,
      "拽": 2897,
      "拾": 2898,
      "拿": 2899,
      "持": 2900,
      "挂": 2901,
      "指": 2902,
      "挈": 2903,
      "按": 2904,
      "挎": 2905,
      "挑": 2906,
      "挖": 2907,
      "挙": 2908,
      "挚": 2909,
      "挛": 2910,
      "挝": 2911,
      "挞": 2912,
      "挟": 2913,
      "挠": 2914,
      "挡": 2915,
      "挣": 2916,
      "挤": 2917,
      "挥": 2918,
      "挨": 2919,
      "挪": 2920,
      "挫": 2921,
      "振": 2922,
      "挲": 2923,
      "挹": 2924,
      "挺": 2925,
      "挽": 2926,
      "挾": 2927,
      "捂": 2928,
      "捅": 2929,
      "捆": 2930,
      "捉": 2931,
      "捋": 2932,
      "捌": 2933,
      "捍": 2934,
      "捎": 2935,
      "捏": 2936,
      "捐": 2937,
      "捕": 2938,
      "捞": 2939,
      "损": 2940,
      "捡": 2941,
      "换": 2942,
      "捣": 2943,
      "捧": 2944,
      "捨": 2945,
      "捩": 2946,
      "据": 2947,
      "捱": 2948,
      "捲": 2949,
      "捶": 2950,
      "捷": 2951,
      "捺": 2952,
      "捻": 2953,
      "掀": 2954,
      "掂": 2955,
      "掃": 2956,
      "掇": 2957,
      "授": 2958,
      "掉": 2959,
      "掌": 2960,
      "掏": 2961,
      "掐": 2962,
      "排": 2963,
      "掖": 2964,
      "掘": 2965,
      "掙": 2966,
      "掛": 2967,
      "掠": 2968,
      "採": 2969,
      "探": 2970,
      "掣": 2971,
      "接": 2972,
      "控": 2973,
      "推": 2974,
      "掩": 2975,
      "措": 2976,
      "掬": 2977,
      "掰": 2978,
      "掲": 2979,
      "掳": 2980,
      "掴": 2981,
      "掷": 2982,
      "掸": 2983,
      "掺": 2984,
      "揀": 2985,
      "揃": 2986,
      "揄": 2987,
      "揆": 2988,
      "揉": 2989,
      "揍": 2990,
      "描": 2991,
      "提": 2992,
      "插": 2993,
      "揖": 2994,
      "揚": 2995,
      "換": 2996,
      "握": 2997,
      "揣": 2998,
      "揩": 2999,
      "揪": 3000,
      "揭": 3001,
      "揮": 3002,
      "援": 3003,
      "揶": 3004,
      "揸": 3005,
      "揹": 3006,
      "揽": 3007,
      "搀": 3008,
      "搁": 3009,
      "搂": 3010,
      "搅": 3011,
      "損": 3012,
      "搏": 3013,
      "搐": 3014,
      "搓": 3015,
      "搔": 3016,
      "搖": 3017,
      "搗": 3018,
      "搜": 3019,
      "搞": 3020,
      "搡": 3021,
      "搪": 3022,
      "搬": 3023,
      "搭": 3024,
      "搵": 3025,
      "搶": 3026,
      "携": 3027,
      "搽": 3028,
      "摀": 3029,
      "摁": 3030,
      "摄": 3031,
      "摆": 3032,
      "摇": 3033,
      "摈": 3034,
      "摊": 3035,
      "摒": 3036,
      "摔": 3037,
      "摘": 3038,
      "摞": 3039,
      "摟": 3040,
      "摧": 3041,
      "摩": 3042,
      "摯": 3043,
      "摳": 3044,
      "摸": 3045,
      "摹": 3046,
      "摺": 3047,
      "摻": 3048,
      "撂": 3049,
      "撃": 3050,
      "撅": 3051,
      "撇": 3052,
      "撈": 3053,
      "撐": 3054,
      "撑": 3055,
      "撒": 3056,
      "撓": 3057,
      "撕": 3058,
      "撚": 3059,
      "撞": 3060,
      "撤": 3061,
      "撥": 3062,
      "撩": 3063,
      "撫": 3064,
      "撬": 3065,
      "播": 3066,
      "撮": 3067,
      "撰": 3068,
      "撲": 3069,
      "撵": 3070,
      "撷": 3071,
      "撸": 3072,
      "撻": 3073,
      "撼": 3074,
      "撿": 3075,
      "擀": 3076,
      "擁": 3077,
      "擂": 3078,
      "擄": 3079,
      "擅": 3080,
      "擇": 3081,
      "擊": 3082,
      "擋": 3083,
      "操": 3084,
      "擎": 3085,
      "擒": 3086,
      "擔": 3087,
      "擘": 3088,
      "據": 3089,
      "擞": 3090,
      "擠": 3091,
      "擡": 3092,
      "擢": 3093,
      "擦": 3094,
      "擬": 3095,
      "擰": 3096,
      "擱": 3097,
      "擲": 3098,
      "擴": 3099,
      "擷": 3100,
      "擺": 3101,
      "擼": 3102,
      "擾": 3103,
      "攀": 3104,
      "攏": 3105,
      "攒": 3106,
      "攔": 3107,
      "攘": 3108,
      "攙": 3109,
      "攜": 3110,
      "攝": 3111,
      "攞": 3112,
      "攢": 3113,
      "攣": 3114,
      "攤": 3115,
      "攥": 3116,
      "攪": 3117,
      "攫": 3118,
      "攬": 3119,
      "支": 3120,
      "收": 3121,
      "攸": 3122,
      "改": 3123,
      "攻": 3124,
      "放": 3125,
      "政": 3126,
      "故": 3127,
      "效": 3128,
      "敌": 3129,
      "敍": 3130,
      "敎": 3131,
      "敏": 3132,
      "救": 3133,
      "敕": 3134,
      "敖": 3135,
      "敗": 3136,
      "敘": 3137,
      "教": 3138,
      "敛": 3139,
      "敝": 3140,
      "敞": 3141,
      "敢": 3142,
      "散": 3143,
      "敦": 3144,
      "敬": 3145,
      "数": 3146,
      "敲": 3147,
      "整": 3148,
      "敵": 3149,
      "敷": 3150,
      "數": 3151,
      "斂": 3152,
      "斃": 3153,
      "文": 3154,
      "斋": 3155,
      "斌": 3156,
      "斎": 3157,
      "斐": 3158,
      "斑": 3159,
      "斓": 3160,
      "斗": 3161,
      "料": 3162,
      "斛": 3163,
      "斜": 3164,
      "斟": 3165,
      "斡": 3166,
      "斤": 3167,
      "斥": 3168,
      "斧": 3169,
      "斩": 3170,
      "斫": 3171,
      "斬": 3172,
      "断": 3173,
      "斯": 3174,
      "新": 3175,
      "斷": 3176,
      "方": 3177,
      "於": 3178,
      "施": 3179,
      "旁": 3180,
      "旃": 3181,
      "旅": 3182,
      "旋": 3183,
      "旌": 3184,
      "旎": 3185,
      "族": 3186,
      "旖": 3187,
      "旗": 3188,
      "无": 3189,
      "既": 3190,
      "日": 3191,
      "旦": 3192,
      "旧": 3193,
      "旨": 3194,
      "早": 3195,
      "旬": 3196,
      "旭": 3197,
      "旮": 3198,
      "旱": 3199,
      "时": 3200,
      "旷": 3201,
      "旺": 3202,
      "旻": 3203,
      "昀": 3204,
      "昂": 3205,
      "昆": 3206,
      "昇": 3207,
      "昉": 3208,
      "昊": 3209,
      "昌": 3210,
      "明": 3211,
      "昏": 3212,
      "易": 3213,
      "昔": 3214,
      "昕": 3215,
      "昙": 3216,
      "星": 3217,
      "映": 3218,
      "春": 3219,
      "昧": 3220,
      "昨": 3221,
      "昭": 3222,
      "是": 3223,
      "昱": 3224,
      "昴": 3225,
      "昵": 3226,
      "昶": 3227,
      "昼": 3228,
      "显": 3229,
      "晁": 3230,
      "時": 3231,
      "晃": 3232,
      "晉": 3233,
      "晋": 3234,
      "晌": 3235,
      "晏": 3236,
      "晒": 3237,
      "晓": 3238,
      "晔": 3239,
      "晕": 3240,
      "晖": 3241,
      "晗": 3242,
      "晚": 3243,
      "晝": 3244,
      "晞": 3245,
      "晟": 3246,
      "晤": 3247,
      "晦": 3248,
      "晨": 3249,
      "晩": 3250,
      "普": 3251,
      "景": 3252,
      "晰": 3253,
      "晴": 3254,
      "晶": 3255,
      "晷": 3256,
      "智": 3257,
      "晾": 3258,
      "暂": 3259,
      "暄": 3260,
      "暇": 3261,
      "暈": 3262,
      "暉": 3263,
      "暌": 3264,
      "暐": 3265,
      "暑": 3266,
      "暖": 3267,
      "暗": 3268,
      "暝": 3269,
      "暢": 3270,
      "暧": 3271,
      "暨": 3272,
      "暫": 3273,
      "暮": 3274,
      "暱": 3275,
      "暴": 3276,
      "暸": 3277,
      "暹": 3278,
      "曄": 3279,
      "曆": 3280,
      "曇": 3281,
      "曉": 3282,
      "曖": 3283,
      "曙": 3284,
      "曜": 3285,
      "曝": 3286,
      "曠": 3287,
      "曦": 3288,
      "曬": 3289,
      "曰": 3290,
      "曲": 3291,
      "曳": 3292,
      "更": 3293,
      "書": 3294,
      "曹": 3295,
      "曼": 3296,
      "曾": 3297,
      "替": 3298,
      "最": 3299,
      "會": 3300,
      "月": 3301,
      "有": 3302,
      "朋": 3303,
      "服": 3304,
      "朐": 3305,
      "朔": 3306,
      "朕": 3307,
      "朗": 3308,
      "望": 3309,
      "朝": 3310,
      "期": 3311,
      "朦": 3312,
      "朧": 3313,
      "木": 3314,
      "未": 3315,
      "末": 3316,
      "本": 3317,
      "札": 3318,
      "朮": 3319,
      "术": 3320,
      "朱": 3321,
      "朴": 3322,
      "朵": 3323,
      "机": 3324,
      "朽": 3325,
      "杀": 3326,
      "杂": 3327,
      "权": 3328,
      "杆": 3329,
      "杈": 3330,
      "杉": 3331,
      "李": 3332,
      "杏": 3333,
      "材": 3334,
      "村": 3335,
      "杓": 3336,
      "杖": 3337,
      "杜": 3338,
      "杞": 3339,
      "束": 3340,
      "杠": 3341,
      "条": 3342,
      "来": 3343,
      "杨": 3344,
      "杭": 3345,
      "杯": 3346,
      "杰": 3347,
      "東": 3348,
      "杳": 3349,
      "杵": 3350,
      "杷": 3351,
      "杼": 3352,
      "松": 3353,
      "板": 3354,
      "极": 3355,
      "构": 3356,
      "枇": 3357,
      "枉": 3358,
      "枋": 3359,
      "析": 3360,
      "枕": 3361,
      "林": 3362,
      "枚": 3363,
      "果": 3364,
      "枝": 3365,
      "枢": 3366,
      "枣": 3367,
      "枪": 3368,
      "枫": 3369,
      "枭": 3370,
      "枯": 3371,
      "枰": 3372,
      "枱": 3373,
      "枳": 3374,
      "架": 3375,
      "枷": 3376,
      "枸": 3377,
      "柄": 3378,
      "柏": 3379,
      "某": 3380,
      "柑": 3381,
      "柒": 3382,
      "染": 3383,
      "柔": 3384,
      "柘": 3385,
      "柚": 3386,
      "柜": 3387,
      "柞": 3388,
      "柠": 3389,
      "柢": 3390,
      "查": 3391,
      "柩": 3392,
      "柬": 3393,
      "柯": 3394,
      "柱": 3395,
      "柳": 3396,
      "柴": 3397,
      "柵": 3398,
      "査": 3399,
      "柿": 3400,
      "栀": 3401,
      "栃": 3402,
      "栄": 3403,
      "栅": 3404,
      "标": 3405,
      "栈": 3406,
      "栉": 3407,
      "栋": 3408,
      "栎": 3409,
      "栏": 3410,
      "树": 3411,
      "栓": 3412,
      "栖": 3413,
      "栗": 3414,
      "校": 3415,
      "栩": 3416,
      "株": 3417,
      "样": 3418,
      "核": 3419,
      "根": 3420,
      "格": 3421,
      "栽": 3422,
      "栾": 3423,
      "桀": 3424,
      "桁": 3425,
      "桂": 3426,
      "桃": 3427,
      "桅": 3428,
      "框": 3429,
      "案": 3430,
      "桉": 3431,
      "桌": 3432,
      "桎": 3433,
      "桐": 3434,
      "桑": 3435,
      "桓": 3436,
      "桔": 3437,
      "桜": 3438,
      "桠": 3439,
      "桡": 3440,
      "桢": 3441,
      "档": 3442,
      "桥": 3443,
      "桦": 3444,
      "桧": 3445,
      "桨": 3446,
      "桩": 3447,
      "桶": 3448,
      "桿": 3449,
      "梁": 3450,
      "梅": 3451,
      "梆": 3452,
      "梏": 3453,
      "梓": 3454,
      "梗": 3455,
      "條": 3456,
      "梟": 3457,
      "梢": 3458,
      "梦": 3459,
      "梧": 3460,
      "梨": 3461,
      "梭": 3462,
      "梯": 3463,
      "械": 3464,
      "梳": 3465,
      "梵": 3466,
      "梶": 3467,
      "检": 3468,
      "棂": 3469,
      "棄": 3470,
      "棉": 3471,
      "棋": 3472,
      "棍": 3473,
      "棒": 3474,
      "棕": 3475,
      "棗": 3476,
      "棘": 3477,
      "棚": 3478,
      "棟": 3479,
      "棠": 3480,
      "棣": 3481,
      "棧": 3482,
      "森": 3483,
      "棱": 3484,
      "棲": 3485,
      "棵": 3486,
      "棹": 3487,
      "棺": 3488,
      "椁": 3489,
      "椅": 3490,
      "椋": 3491,
      "植": 3492,
      "椎": 3493,
      "椒": 3494,
      "検": 3495,
      "椪": 3496,
      "椭": 3497,
      "椰": 3498,
      "椹": 3499,
      "椽": 3500,
      "椿": 3501,
      "楂": 3502,
      "楊": 3503,
      "楓": 3504,
      "楔": 3505,
      "楚": 3506,
      "楝": 3507,
      "楞": 3508,
      "楠": 3509,
      "楣": 3510,
      "楨": 3511,
      "楫": 3512,
      "業": 3513,
      "楮": 3514,
      "極": 3515,
      "楷": 3516,
      "楸": 3517,
      "楹": 3518,
      "楼": 3519,
      "楽": 3520,
      "概": 3521,
      "榄": 3522,
      "榆": 3523,
      "榈": 3524,
      "榉": 3525,
      "榔": 3526,
      "榕": 3527,
      "榖": 3528,
      "榛": 3529,
      "榜": 3530,
      "榨": 3531,
      "榫": 3532,
      "榭": 3533,
      "榮": 3534,
      "榱": 3535,
      "榴": 3536,
      "榷": 3537,
      "榻": 3538,
      "槁": 3539,
      "槃": 3540,
      "構": 3541,
      "槌": 3542,
      "槍": 3543,
      "槎": 3544,
      "槐": 3545,
      "槓": 3546,
      "様": 3547,
      "槛": 3548,
      "槟": 3549,
      "槤": 3550,
      "槭": 3551,
      "槲": 3552,
      "槳": 3553,
      "槻": 3554,
      "槽": 3555,
      "槿": 3556,
      "樁": 3557,
      "樂": 3558,
      "樊": 3559,
      "樑": 3560,
      "樓": 3561,
      "標": 3562,
      "樞": 3563,
      "樟": 3564,
      "模": 3565,
      "樣": 3566,
      "権": 3567,
      "横": 3568,
      "樫": 3569,
      "樯": 3570,
      "樱": 3571,
      "樵": 3572,
      "樸": 3573,
      "樹": 3574,
      "樺": 3575,
      "樽": 3576,
      "樾": 3577,
      "橄": 3578,
      "橇": 3579,
      "橋": 3580,
      "橐": 3581,
      "橘": 3582,
      "橙": 3583,
      "機": 3584,
      "橡": 3585,
      "橢": 3586,
      "橫": 3587,
      "橱": 3588,
      "橹": 3589,
      "橼": 3590,
      "檀": 3591,
      "檄": 3592,
      "檎": 3593,
      "檐": 3594,
      "檔": 3595,
      "檗": 3596,
      "檜": 3597,
      "檢": 3598,
      "檬": 3599,
      "檯": 3600,
      "檳": 3601,
      "檸": 3602,
      "檻": 3603,
      "櫃": 3604,
      "櫚": 3605,
      "櫛": 3606,
      "櫥": 3607,
      "櫸": 3608,
      "櫻": 3609,
      "欄": 3610,
      "權": 3611,
      "欒": 3612,
      "欖": 3613,
      "欠": 3614,
      "次": 3615,
      "欢": 3616,
      "欣": 3617,
      "欧": 3618,
      "欲": 3619,
      "欸": 3620,
      "欺": 3621,
      "欽": 3622,
      "款": 3623,
      "歆": 3624,
      "歇": 3625,
      "歉": 3626,
      "歌": 3627,
      "歎": 3628,
      "歐": 3629,
      "歓": 3630,
      "歙": 3631,
      "歛": 3632,
      "歡": 3633,
      "止": 3634,
      "正": 3635,
      "此": 3636,
      "步": 3637,
      "武": 3638,
      "歧": 3639,
      "歩": 3640,
      "歪": 3641,
      "歯": 3642,
      "歲": 3643,
      "歳": 3644,
      "歴": 3645,
      "歷": 3646,
      "歸": 3647,
      "歹": 3648,
      "死": 3649,
      "歼": 3650,
      "殁": 3651,
      "殃": 3652,
      "殆": 3653,
      "殇": 3654,
      "殉": 3655,
      "殊": 3656,
      "残": 3657,
      "殒": 3658,
      "殓": 3659,
      "殖": 3660,
      "殘": 3661,
      "殞": 3662,
      "殡": 3663,
      "殤": 3664,
      "殭": 3665,
      "殯": 3666,
      "殲": 3667,
      "殴": 3668,
      "段": 3669,
      "殷": 3670,
      "殺": 3671,
      "殼": 3672,
      "殿": 3673,
      "毀": 3674,
      "毁": 3675,
      "毂": 3676,
      "毅": 3677,
      "毆": 3678,
      "毋": 3679,
      "母": 3680,
      "毎": 3681,
      "每": 3682,
      "毒": 3683,
      "毓": 3684,
      "比": 3685,
      "毕": 3686,
      "毗": 3687,
      "毘": 3688,
      "毙": 3689,
      "毛": 3690,
      "毡": 3691,
      "毫": 3692,
      "毯": 3693,
      "毽": 3694,
      "氈": 3695,
      "氏": 3696,
      "氐": 3697,
      "民": 3698,
      "氓": 3699,
      "气": 3700,
      "氖": 3701,
      "気": 3702,
      "氙": 3703,
      "氛": 3704,
      "氟": 3705,
      "氡": 3706,
      "氢": 3707,
      "氣": 3708,
      "氤": 3709,
      "氦": 3710,
      "氧": 3711,
      "氨": 3712,
      "氪": 3713,
      "氫": 3714,
      "氮": 3715,
      "氯": 3716,
      "氰": 3717,
      "氲": 3718,
      "水": 3719,
      "氷": 3720,
      "永": 3721,
      "氹": 3722,
      "氾": 3723,
      "汀": 3724,
      "汁": 3725,
      "求": 3726,
      "汆": 3727,
      "汇": 3728,
      "汉": 3729,
      "汎": 3730,
      "汐": 3731,
      "汕": 3732,
      "汗": 3733,
      "汙": 3734,
      "汛": 3735,
      "汝": 3736,
      "汞": 3737,
      "江": 3738,
      "池": 3739,
      "污": 3740,
      "汤": 3741,
      "汨": 3742,
      "汩": 3743,
      "汪": 3744,
      "汰": 3745,
      "汲": 3746,
      "汴": 3747,
      "汶": 3748,
      "汹": 3749,
      "決": 3750,
      "汽": 3751,
      "汾": 3752,
      "沁": 3753,
      "沂": 3754,
      "沃": 3755,
      "沅": 3756,
      "沈": 3757,
      "沉": 3758,
      "沌": 3759,
      "沏": 3760,
      "沐": 3761,
      "沒": 3762,
      "沓": 3763,
      "沖": 3764,
      "沙": 3765,
      "沛": 3766,
      "沟": 3767,
      "没": 3768,
      "沢": 3769,
      "沣": 3770,
      "沥": 3771,
      "沦": 3772,
      "沧": 3773,
      "沪": 3774,
      "沫": 3775,
      "沭": 3776,
      "沮": 3777,
      "沱": 3778,
      "河": 3779,
      "沸": 3780,
      "油": 3781,
      "治": 3782,
      "沼": 3783,
      "沽": 3784,
      "沾": 3785,
      "沿": 3786,
      "況": 3787,
      "泄": 3788,
      "泉": 3789,
      "泊": 3790,
      "泌": 3791,
      "泓": 3792,
      "法": 3793,
      "泗": 3794,
      "泛": 3795,
      "泞": 3796,
      "泠": 3797,
      "泡": 3798,
      "波": 3799,
      "泣": 3800,
      "泥": 3801,
      "注": 3802,
      "泪": 3803,
      "泫": 3804,
      "泮": 3805,
      "泯": 3806,
      "泰": 3807,
      "泱": 3808,
      "泳": 3809,
      "泵": 3810,
      "泷": 3811,
      "泸": 3812,
      "泻": 3813,
      "泼": 3814,
      "泽": 3815,
      "泾": 3816,
      "洁": 3817,
      "洄": 3818,
      "洋": 3819,
      "洒": 3820,
      "洗": 3821,
      "洙": 3822,
      "洛": 3823,
      "洞": 3824,
      "津": 3825,
      "洩": 3826,
      "洪": 3827,
      "洮": 3828,
      "洱": 3829,
      "洲": 3830,
      "洵": 3831,
      "洶": 3832,
      "洸": 3833,
      "洹": 3834,
      "活": 3835,
      "洼": 3836,
      "洽": 3837,
      "派": 3838,
      "流": 3839,
      "浃": 3840,
      "浄": 3841,
      "浅": 3842,
      "浆": 3843,
      "浇": 3844,
      "浊": 3845,
      "测": 3846,
      "济": 3847,
      "浏": 3848,
      "浑": 3849,
      "浒": 3850,
      "浓": 3851,
      "浔": 3852,
      "浙": 3853,
      "浚": 3854,
      "浜": 3855,
      "浣": 3856,
      "浦": 3857,
      "浩": 3858,
      "浪": 3859,
      "浬": 3860,
      "浮": 3861,
      "浯": 3862,
      "浴": 3863,
      "海": 3864,
      "浸": 3865,
      "涂": 3866,
      "涅": 3867,
      "涇": 3868,
      "消": 3869,
      "涉": 3870,
      "涌": 3871,
      "涎": 3872,
      "涓": 3873,
      "涔": 3874,
      "涕": 3875,
      "涙": 3876,
      "涛": 3877,
      "涝": 3878,
      "涞": 3879,
      "涟": 3880,
      "涠": 3881,
      "涡": 3882,
      "涣": 3883,
      "涤": 3884,
      "润": 3885,
      "涧": 3886,
      "涨": 3887,
      "涩": 3888,
      "涪": 3889,
      "涮": 3890,
      "涯": 3891,
      "液": 3892,
      "涵": 3893,
      "涸": 3894,
      "涼": 3895,
      "涿": 3896,
      "淀": 3897,
      "淄": 3898,
      "淅": 3899,
      "淆": 3900,
      "淇": 3901,
      "淋": 3902,
      "淌": 3903,
      "淑": 3904,
      "淒": 3905,
      "淖": 3906,
      "淘": 3907,
      "淙": 3908,
      "淚": 3909,
      "淞": 3910,
      "淡": 3911,
      "淤": 3912,
      "淦": 3913,
      "淨": 3914,
      "淩": 3915,
      "淪": 3916,
      "淫": 3917,
      "淬": 3918,
      "淮": 3919,
      "深": 3920,
      "淳": 3921,
      "淵": 3922,
      "混": 3923,
      "淹": 3924,
      "淺": 3925,
      "添": 3926,
      "淼": 3927,
      "清": 3928,
      "済": 3929,
      "渉": 3930,
      "渊": 3931,
      "渋": 3932,
      "渍": 3933,
      "渎": 3934,
      "渐": 3935,
      "渔": 3936,
      "渗": 3937,
      "渙": 3938,
      "渚": 3939,
      "減": 3940,
      "渝": 3941,
      "渠": 3942,
      "渡": 3943,
      "渣": 3944,
      "渤": 3945,
      "渥": 3946,
      "渦": 3947,
      "温": 3948,
      "測": 3949,
      "渭": 3950,
      "港": 3951,
      "渲": 3952,
      "渴": 3953,
      "游": 3954,
      "渺": 3955,
      "渾": 3956,
      "湃": 3957,
      "湄": 3958,
      "湊": 3959,
      "湍": 3960,
      "湖": 3961,
      "湘": 3962,
      "湛": 3963,
      "湟": 3964,
      "湧": 3965,
      "湫": 3966,
      "湮": 3967,
      "湯": 3968,
      "湳": 3969,
      "湾": 3970,
      "湿": 3971,
      "満": 3972,
      "溃": 3973,
      "溅": 3974,
      "溉": 3975,
      "溏": 3976,
      "源": 3977,
      "準": 3978,
      "溜": 3979,
      "溝": 3980,
      "溟": 3981,
      "溢": 3982,
      "溥": 3983,
      "溧": 3984,
      "溪": 3985,
      "溫": 3986,
      "溯": 3987,
      "溱": 3988,
      "溴": 3989,
      "溶": 3990,
      "溺": 3991,
      "溼": 3992,
      "滁": 3993,
      "滂": 3994,
      "滄": 3995,
      "滅": 3996,
      "滇": 3997,
      "滋": 3998,
      "滌": 3999,
      "滑": 4000,
      "滓": 4001,
      "滔": 4002,
      "滕": 4003,
      "滙": 4004,
      "滚": 4005,
      "滝": 4006,
      "滞": 4007,
      "滟": 4008,
      "满": 4009,
      "滢": 4010,
      "滤": 4011,
      "滥": 4012,
      "滦": 4013,
      "滨": 4014,
      "滩": 4015,
      "滬": 4016,
      "滯": 4017,
      "滲": 4018,
      "滴": 4019,
      "滷": 4020,
      "滸": 4021,
      "滾": 4022,
      "滿": 4023,
      "漁": 4024,
      "漂": 4025,
      "漆": 4026,
      "漉": 4027,
      "漏": 4028,
      "漓": 4029,
      "演": 4030,
      "漕": 4031,
      "漠": 4032,
      "漢": 4033,
      "漣": 4034,
      "漩": 4035,
      "漪": 4036,
      "漫": 4037,
      "漬": 4038,
      "漯": 4039,
      "漱": 4040,
      "漲": 4041,
      "漳": 4042,
      "漸": 4043,
      "漾": 4044,
      "漿": 4045,
      "潆": 4046,
      "潇": 4047,
      "潋": 4048,
      "潍": 4049,
      "潑": 4050,
      "潔": 4051,
      "潘": 4052,
      "潛": 4053,
      "潜": 4054,
      "潞": 4055,
      "潟": 4056,
      "潢": 4057,
      "潤": 4058,
      "潦": 4059,
      "潧": 4060,
      "潭": 4061,
      "潮": 4062,
      "潰": 4063,
      "潴": 4064,
      "潸": 4065,
      "潺": 4066,
      "潼": 4067,
      "澀": 4068,
      "澄": 4069,
      "澆": 4070,
      "澈": 4071,
      "澍": 4072,
      "澎": 4073,
      "澗": 4074,
      "澜": 4075,
      "澡": 4076,
      "澤": 4077,
      "澧": 4078,
      "澱": 4079,
      "澳": 4080,
      "澹": 4081,
      "激": 4082,
      "濁": 4083,
      "濂": 4084,
      "濃": 4085,
      "濑": 4086,
      "濒": 4087,
      "濕": 4088,
      "濘": 4089,
      "濛": 4090,
      "濟": 4091,
      "濠": 4092,
      "濡": 4093,
      "濤": 4094,
      "濫": 4095,
      "濬": 4096,
      "濮": 4097,
      "濯": 4098,
      "濱": 4099,
      "濺": 4100,
      "濾": 4101,
      "瀅": 4102,
      "瀆": 4103,
      "瀉": 4104,
      "瀋": 4105,
      "瀏": 4106,
      "瀑": 4107,
      "瀕": 4108,
      "瀘": 4109,
      "瀚": 4110,
      "瀛": 4111,
      "瀝": 4112,
      "瀞": 4113,
      "瀟": 4114,
      "瀧": 4115,
      "瀨": 4116,
      "瀬": 4117,
      "瀰": 4118,
      "瀾": 4119,
      "灌": 4120,
      "灏": 4121,
      "灑": 4122,
      "灘": 4123,
      "灝": 4124,
      "灞": 4125,
      "灣": 4126,
      "火": 4127,
      "灬": 4128,
      "灭": 4129,
      "灯": 4130,
      "灰": 4131,
      "灵": 4132,
      "灶": 4133,
      "灸": 4134,
      "灼": 4135,
      "災": 4136,
      "灾": 4137,
      "灿": 4138,
      "炀": 4139,
      "炁": 4140,
      "炅": 4141,
      "炉": 4142,
      "炊": 4143,
      "炎": 4144,
      "炒": 4145,
      "炔": 4146,
      "炕": 4147,
      "炖": 4148,
      "炙": 4149,
      "炜": 4150,
      "炫": 4151,
      "炬": 4152,
      "炭": 4153,
      "炮": 4154,
      "炯": 4155,
      "炳": 4156,
      "炷": 4157,
      "炸": 4158,
      "点": 4159,
      "為": 4160,
      "炼": 4161,
      "炽": 4162,
      "烁": 4163,
      "烂": 4164,
      "烃": 4165,
      "烈": 4166,
      "烊": 4167,
      "烏": 4168,
      "烘": 4169,
      "烙": 4170,
      "烛": 4171,
      "烟": 4172,
      "烤": 4173,
      "烦": 4174,
      "烧": 4175,
      "烨": 4176,
      "烩": 4177,
      "烫": 4178,
      "烬": 4179,
      "热": 4180,
      "烯": 4181,
      "烷": 4182,
      "烹": 4183,
      "烽": 4184,
      "焉": 4185,
      "焊": 4186,
      "焕": 4187,
      "焖": 4188,
      "焗": 4189,
      "焘": 4190,
      "焙": 4191,
      "焚": 4192,
      "焜": 4193,
      "無": 4194,
      "焦": 4195,
      "焯": 4196,
      "焰": 4197,
      "焱": 4198,
      "然": 4199,
      "焼": 4200,
      "煅": 4201,
      "煉": 4202,
      "煊": 4203,
      "煌": 4204,
      "煎": 4205,
      "煒": 4206,
      "煖": 4207,
      "煙": 4208,
      "煜": 4209,
      "煞": 4210,
      "煤": 4211,
      "煥": 4212,
      "煦": 4213,
      "照": 4214,
      "煨": 4215,
      "煩": 4216,
      "煮": 4217,
      "煲": 4218,
      "煸": 4219,
      "煽": 4220,
      "熄": 4221,
      "熊": 4222,
      "熏": 4223,
      "熒": 4224,
      "熔": 4225,
      "熙": 4226,
      "熟": 4227,
      "熠": 4228,
      "熨": 4229,
      "熬": 4230,
      "熱": 4231,
      "熵": 4232,
      "熹": 4233,
      "熾": 4234,
      "燁": 4235,
      "燃": 4236,
      "燄": 4237,
      "燈": 4238,
      "燉": 4239,
      "燊": 4240,
      "燎": 4241,
      "燒": 4242,
      "燔": 4243,
      "燕": 4244,
      "燙": 4245,
      "燜": 4246,
      "營": 4247,
      "燥": 4248,
      "燦": 4249,
      "燧": 4250,
      "燭": 4251,
      "燮": 4252,
      "燴": 4253,
      "燻": 4254,
      "燼": 4255,
      "燿": 4256,
      "爆": 4257,
      "爍": 4258,
      "爐": 4259,
      "爛": 4260,
      "爪": 4261,
      "爬": 4262,
      "爭": 4263,
      "爰": 4264,
      "爱": 4265,
      "爲": 4266,
      "爵": 4267,
      "父": 4268,
      "爷": 4269,
      "爸": 4270,
      "爹": 4271,
      "爺": 4272,
      "爻": 4273,
      "爽": 4274,
      "爾": 4275,
      "牆": 4276,
      "片": 4277,
      "版": 4278,
      "牌": 4279,
      "牍": 4280,
      "牒": 4281,
      "牙": 4282,
      "牛": 4283,
      "牝": 4284,
      "牟": 4285,
      "牠": 4286,
      "牡": 4287,
      "牢": 4288,
      "牦": 4289,
      "牧": 4290,
      "物": 4291,
      "牯": 4292,
      "牲": 4293,
      "牴": 4294,
      "牵": 4295,
      "特": 4296,
      "牺": 4297,
      "牽": 4298,
      "犀": 4299,
      "犁": 4300,
      "犄": 4301,
      "犊": 4302,
      "犍": 4303,
      "犒": 4304,
      "犢": 4305,
      "犧": 4306,
      "犬": 4307,
      "犯": 4308,
      "状": 4309,
      "犷": 4310,
      "犸": 4311,
      "犹": 4312,
      "狀": 4313,
      "狂": 4314,
      "狄": 4315,
      "狈": 4316,
      "狎": 4317,
      "狐": 4318,
      "狒": 4319,
      "狗": 4320,
      "狙": 4321,
      "狞": 4322,
      "狠": 4323,
      "狡": 4324,
      "狩": 4325,
      "独": 4326,
      "狭": 4327,
      "狮": 4328,
      "狰": 4329,
      "狱": 4330,
      "狸": 4331,
      "狹": 4332,
      "狼": 4333,
      "狽": 4334,
      "猎": 4335,
      "猕": 4336,
      "猖": 4337,
      "猗": 4338,
      "猙": 4339,
      "猛": 4340,
      "猜": 4341,
      "猝": 4342,
      "猥": 4343,
      "猩": 4344,
      "猪": 4345,
      "猫": 4346,
      "猬": 4347,
      "献": 4348,
      "猴": 4349,
      "猶": 4350,
      "猷": 4351,
      "猾": 4352,
      "猿": 4353,
      "獄": 4354,
      "獅": 4355,
      "獎": 4356,
      "獐": 4357,
      "獒": 4358,
      "獗": 4359,
      "獠": 4360,
      "獣": 4361,
      "獨": 4362,
      "獭": 4363,
      "獰": 4364,
      "獲": 4365,
      "獵": 4366,
      "獷": 4367,
      "獸": 4368,
      "獺": 4369,
      "獻": 4370,
      "獼": 4371,
      "獾": 4372,
      "玄": 4373,
      "率": 4374,
      "玉": 4375,
      "王": 4376,
      "玑": 4377,
      "玖": 4378,
      "玛": 4379,
      "玟": 4380,
      "玠": 4381,
      "玥": 4382,
      "玩": 4383,
      "玫": 4384,
      "玮": 4385,
      "环": 4386,
      "现": 4387,
      "玲": 4388,
      "玳": 4389,
      "玷": 4390,
      "玺": 4391,
      "玻": 4392,
      "珀": 4393,
      "珂": 4394,
      "珅": 4395,
      "珈": 4396,
      "珉": 4397,
      "珊": 4398,
      "珍": 4399,
      "珏": 4400,
      "珐": 4401,
      "珑": 4402,
      "珙": 4403,
      "珞": 4404,
      "珠": 4405,
      "珣": 4406,
      "珥": 4407,
      "珩": 4408,
      "珪": 4409,
      "班": 4410,
      "珮": 4411,
      "珲": 4412,
      "珺": 4413,
      "現": 4414,
      "球": 4415,
      "琅": 4416,
      "理": 4417,
      "琇": 4418,
      "琉": 4419,
      "琊": 4420,
      "琍": 4421,
      "琏": 4422,
      "琐": 4423,
      "琛": 4424,
      "琢": 4425,
      "琥": 4426,
      "琦": 4427,
      "琨": 4428,
      "琪": 4429,
      "琬": 4430,
      "琮": 4431,
      "琰": 4432,
      "琲": 4433,
      "琳": 4434,
      "琴": 4435,
      "琵": 4436,
      "琶": 4437,
      "琺": 4438,
      "琼": 4439,
      "瑀": 4440,
      "瑁": 4441,
      "瑄": 4442,
      "瑋": 4443,
      "瑕": 4444,
      "瑗": 4445,
      "瑙": 4446,
      "瑚": 4447,
      "瑛": 4448,
      "瑜": 4449,
      "瑞": 4450,
      "瑟": 4451,
      "瑠": 4452,
      "瑣": 4453,
      "瑤": 4454,
      "瑩": 4455,
      "瑪": 4456,
      "瑯": 4457,
      "瑰": 4458,
      "瑶": 4459,
      "瑾": 4460,
      "璀": 4461,
      "璁": 4462,
      "璃": 4463,
      "璇": 4464,
      "璉": 4465,
      "璋": 4466,
      "璎": 4467,
      "璐": 4468,
      "璜": 4469,
      "璞": 4470,
      "璟": 4471,
      "璧": 4472,
      "璨": 4473,
      "環": 4474,
      "璽": 4475,
      "璿": 4476,
      "瓊": 4477,
      "瓏": 4478,
      "瓒": 4479,
      "瓜": 4480,
      "瓢": 4481,
      "瓣": 4482,
      "瓤": 4483,
      "瓦": 4484,
      "瓮": 4485,
      "瓯": 4486,
      "瓴": 4487,
      "瓶": 4488,
      "瓷": 4489,
      "甄": 4490,
      "甌": 4491,
      "甕": 4492,
      "甘": 4493,
      "甙": 4494,
      "甚": 4495,
      "甜": 4496,
      "生": 4497,
      "產": 4498,
      "産": 4499,
      "甥": 4500,
      "甦": 4501,
      "用": 4502,
      "甩": 4503,
      "甫": 4504,
      "甬": 4505,
      "甭": 4506,
      "甯": 4507,
      "田": 4508,
      "由": 4509,
      "甲": 4510,
      "申": 4511,
      "电": 4512,
      "男": 4513,
      "甸": 4514,
      "町": 4515,
      "画": 4516,
      "甾": 4517,
      "畀": 4518,
      "畅": 4519,
      "界": 4520,
      "畏": 4521,
      "畑": 4522,
      "畔": 4523,
      "留": 4524,
      "畜": 4525,
      "畝": 4526,
      "畢": 4527,
      "略": 4528,
      "畦": 4529,
      "番": 4530,
      "畫": 4531,
      "異": 4532,
      "畲": 4533,
      "畳": 4534,
      "畴": 4535,
      "當": 4536,
      "畸": 4537,
      "畹": 4538,
      "畿": 4539,
      "疆": 4540,
      "疇": 4541,
      "疊": 4542,
      "疏": 4543,
      "疑": 4544,
      "疔": 4545,
      "疖": 4546,
      "疗": 4547,
      "疙": 4548,
      "疚": 4549,
      "疝": 4550,
      "疟": 4551,
      "疡": 4552,
      "疣": 4553,
      "疤": 4554,
      "疥": 4555,
      "疫": 4556,
      "疮": 4557,
      "疯": 4558,
      "疱": 4559,
      "疲": 4560,
      "疳": 4561,
      "疵": 4562,
      "疸": 4563,
      "疹": 4564,
      "疼": 4565,
      "疽": 4566,
      "疾": 4567,
      "痂": 4568,
      "病": 4569,
      "症": 4570,
      "痈": 4571,
      "痉": 4572,
      "痊": 4573,
      "痍": 4574,
      "痒": 4575,
      "痔": 4576,
      "痕": 4577,
      "痘": 4578,
      "痙": 4579,
      "痛": 4580,
      "痞": 4581,
      "痠": 4582,
      "痢": 4583,
      "痣": 4584,
      "痤": 4585,
      "痧": 4586,
      "痨": 4587,
      "痪": 4588,
      "痫": 4589,
      "痰": 4590,
      "痱": 4591,
      "痴": 4592,
      "痹": 4593,
      "痺": 4594,
      "痼": 4595,
      "痿": 4596,
      "瘀": 4597,
      "瘁": 4598,
      "瘋": 4599,
      "瘍": 4600,
      "瘓": 4601,
      "瘘": 4602,
      "瘙": 4603,
      "瘟": 4604,
      "瘠": 4605,
      "瘡": 4606,
      "瘢": 4607,
      "瘤": 4608,
      "瘦": 4609,
      "瘧": 4610,
      "瘩": 4611,
      "瘪": 4612,
      "瘫": 4613,
      "瘴": 4614,
      "瘸": 4615,
      "瘾": 4616,
      "療": 4617,
      "癇": 4618,
      "癌": 4619,
      "癒": 4620,
      "癖": 4621,
      "癜": 4622,
      "癞": 4623,
      "癡": 4624,
      "癢": 4625,
      "癣": 4626,
      "癥": 4627,
      "癫": 4628,
      "癬": 4629,
      "癮": 4630,
      "癱": 4631,
      "癲": 4632,
      "癸": 4633,
      "発": 4634,
      "登": 4635,
      "發": 4636,
      "白": 4637,
      "百": 4638,
      "皂": 4639,
      "的": 4640,
      "皆": 4641,
      "皇": 4642,
      "皈": 4643,
      "皋": 4644,
      "皎": 4645,
      "皑": 4646,
      "皓": 4647,
      "皖": 4648,
      "皙": 4649,
      "皚": 4650,
      "皮": 4651,
      "皰": 4652,
      "皱": 4653,
      "皴": 4654,
      "皺": 4655,
      "皿": 4656,
      "盂": 4657,
      "盃": 4658,
      "盅": 4659,
      "盆": 4660,
      "盈": 4661,
      "益": 4662,
      "盎": 4663,
      "盏": 4664,
      "盐": 4665,
      "监": 4666,
      "盒": 4667,
      "盔": 4668,
      "盖": 4669,
      "盗": 4670,
      "盘": 4671,
      "盛": 4672,
      "盜": 4673,
      "盞": 4674,
      "盟": 4675,
      "盡": 4676,
      "監": 4677,
      "盤": 4678,
      "盥": 4679,
      "盧": 4680,
      "盪": 4681,
      "目": 4682,
      "盯": 4683,
      "盱": 4684,
      "盲": 4685,
      "直": 4686,
      "相": 4687,
      "盹": 4688,
      "盼": 4689,
      "盾": 4690,
      "省": 4691,
      "眈": 4692,
      "眉": 4693,
      "看": 4694,
      "県": 4695,
      "眙": 4696,
      "眞": 4697,
      "真": 4698,
      "眠": 4699,
      "眦": 4700,
      "眨": 4701,
      "眩": 4702,
      "眯": 4703,
      "眶": 4704,
      "眷": 4705,
      "眸": 4706,
      "眺": 4707,
      "眼": 4708,
      "眾": 4709,
      "着": 4710,
      "睁": 4711,
      "睇": 4712,
      "睏": 4713,
      "睐": 4714,
      "睑": 4715,
      "睛": 4716,
      "睜": 4717,
      "睞": 4718,
      "睡": 4719,
      "睢": 4720,
      "督": 4721,
      "睥": 4722,
      "睦": 4723,
      "睨": 4724,
      "睪": 4725,
      "睫": 4726,
      "睬": 4727,
      "睹": 4728,
      "睽": 4729,
      "睾": 4730,
      "睿": 4731,
      "瞄": 4732,
      "瞅": 4733,
      "瞇": 4734,
      "瞋": 4735,
      "瞌": 4736,
      "瞎": 4737,
      "瞑": 4738,
      "瞒": 4739,
      "瞓": 4740,
      "瞞": 4741,
      "瞟": 4742,
      "瞠": 4743,
      "瞥": 4744,
      "瞧": 4745,
      "瞩": 4746,
      "瞪": 4747,
      "瞬": 4748,
      "瞭": 4749,
      "瞰": 4750,
      "瞳": 4751,
      "瞻": 4752,
      "瞼": 4753,
      "瞿": 4754,
      "矇": 4755,
      "矍": 4756,
      "矗": 4757,
      "矚": 4758,
      "矛": 4759,
      "矜": 4760,
      "矢": 4761,
      "矣": 4762,
      "知": 4763,
      "矩": 4764,
      "矫": 4765,
      "短": 4766,
      "矮": 4767,
      "矯": 4768,
      "石": 4769,
      "矶": 4770,
      "矽": 4771,
      "矾": 4772,
      "矿": 4773,
      "码": 4774,
      "砂": 4775,
      "砌": 4776,
      "砍": 4777,
      "砒": 4778,
      "研": 4779,
      "砖": 4780,
      "砗": 4781,
      "砚": 4782,
      "砝": 4783,
      "砣": 4784,
      "砥": 4785,
      "砧": 4786,
      "砭": 4787,
      "砰": 4788,
      "砲": 4789,
      "破": 4790,
      "砷": 4791,
      "砸": 4792,
      "砺": 4793,
      "砼": 4794,
      "砾": 4795,
      "础": 4796,
      "硅": 4797,
      "硐": 4798,
      "硒": 4799,
      "硕": 4800,
      "硝": 4801,
      "硫": 4802,
      "硬": 4803,
      "确": 4804,
      "硯": 4805,
      "硼": 4806,
      "碁": 4807,
      "碇": 4808,
      "碉": 4809,
      "碌": 4810,
      "碍": 4811,
      "碎": 4812,
      "碑": 4813,
      "碓": 4814,
      "碗": 4815,
      "碘": 4816,
      "碚": 4817,
      "碛": 4818,
      "碟": 4819,
      "碣": 4820,
      "碧": 4821,
      "碩": 4822,
      "碰": 4823,
      "碱": 4824,
      "碳": 4825,
      "碴": 4826,
      "確": 4827,
      "碼": 4828,
      "碾": 4829,
      "磁": 4830,
      "磅": 4831,
      "磊": 4832,
      "磋": 4833,
      "磐": 4834,
      "磕": 4835,
      "磚": 4836,
      "磡": 4837,
      "磨": 4838,
      "磬": 4839,
      "磯": 4840,
      "磲": 4841,
      "磷": 4842,
      "磺": 4843,
      "礁": 4844,
      "礎": 4845,
      "礙": 4846,
      "礡": 4847,
      "礦": 4848,
      "礪": 4849,
      "礫": 4850,
      "礴": 4851,
      "示": 4852,
      "礼": 4853,
      "社": 4854,
      "祀": 4855,
      "祁": 4856,
      "祂": 4857,
      "祇": 4858,
      "祈": 4859,
      "祉": 4860,
      "祎": 4861,
      "祐": 4862,
      "祕": 4863,
      "祖": 4864,
      "祗": 4865,
      "祚": 4866,
      "祛": 4867,
      "祜": 4868,
      "祝": 4869,
      "神": 4870,
      "祟": 4871,
      "祠": 4872,
      "祢": 4873,
      "祥": 4874,
      "票": 4875,
      "祭": 4876,
      "祯": 4877,
      "祷": 4878,
      "祸": 4879,
      "祺": 4880,
      "祿": 4881,
      "禀": 4882,
      "禁": 4883,
      "禄": 4884,
      "禅": 4885,
      "禍": 4886,
      "禎": 4887,
      "福": 4888,
      "禛": 4889,
      "禦": 4890,
      "禧": 4891,
      "禪": 4892,
      "禮": 4893,
      "禱": 4894,
      "禹": 4895,
      "禺": 4896,
      "离": 4897,
      "禽": 4898,
      "禾": 4899,
      "禿": 4900,
      "秀": 4901,
      "私": 4902,
      "秃": 4903,
      "秆": 4904,
      "秉": 4905,
      "秋": 4906,
      "种": 4907,
      "科": 4908,
      "秒": 4909,
      "秘": 4910,
      "租": 4911,
      "秣": 4912,
      "秤": 4913,
      "秦": 4914,
      "秧": 4915,
      "秩": 4916,
      "秭": 4917,
      "积": 4918,
      "称": 4919,
      "秸": 4920,
      "移": 4921,
      "秽": 4922,
      "稀": 4923,
      "稅": 4924,
      "程": 4925,
      "稍": 4926,
      "税": 4927,
      "稔": 4928,
      "稗": 4929,
      "稚": 4930,
      "稜": 4931,
      "稞": 4932,
      "稟": 4933,
      "稠": 4934,
      "稣": 4935,
      "種": 4936,
      "稱": 4937,
      "稲": 4938,
      "稳": 4939,
      "稷": 4940,
      "稹": 4941,
      "稻": 4942,
      "稼": 4943,
      "稽": 4944,
      "稿": 4945,
      "穀": 4946,
      "穂": 4947,
      "穆": 4948,
      "穌": 4949,
      "積": 4950,
      "穎": 4951,
      "穗": 4952,
      "穢": 4953,
      "穩": 4954,
      "穫": 4955,
      "穴": 4956,
      "究": 4957,
      "穷": 4958,
      "穹": 4959,
      "空": 4960,
      "穿": 4961,
      "突": 4962,
      "窃": 4963,
      "窄": 4964,
      "窈": 4965,
      "窍": 4966,
      "窑": 4967,
      "窒": 4968,
      "窓": 4969,
      "窕": 4970,
      "窖": 4971,
      "窗": 4972,
      "窘": 4973,
      "窜": 4974,
      "窝": 4975,
      "窟": 4976,
      "窠": 4977,
      "窥": 4978,
      "窦": 4979,
      "窨": 4980,
      "窩": 4981,
      "窪": 4982,
      "窮": 4983,
      "窯": 4984,
      "窺": 4985,
      "窿": 4986,
      "竄": 4987,
      "竅": 4988,
      "竇": 4989,
      "竊": 4990,
      "立": 4991,
      "竖": 4992,
      "站": 4993,
      "竜": 4994,
      "竞": 4995,
      "竟": 4996,
      "章": 4997,
      "竣": 4998,
      "童": 4999,
      "竭": 5000,
      "端": 5001,
      "競": 5002,
      "竹": 5003,
      "竺": 5004,
      "竽": 5005,
      "竿": 5006,
      "笃": 5007,
      "笆": 5008,
      "笈": 5009,
      "笋": 5010,
      "笏": 5011,
      "笑": 5012,
      "笔": 5013,
      "笙": 5014,
      "笛": 5015,
      "笞": 5016,
      "笠": 5017,
      "符": 5018,
      "笨": 5019,
      "第": 5020,
      "笹": 5021,
      "笺": 5022,
      "笼": 5023,
      "筆": 5024,
      "等": 5025,
      "筊": 5026,
      "筋": 5027,
      "筍": 5028,
      "筏": 5029,
      "筐": 5030,
      "筑": 5031,
      "筒": 5032,
      "答": 5033,
      "策": 5034,
      "筛": 5035,
      "筝": 5036,
      "筠": 5037,
      "筱": 5038,
      "筲": 5039,
      "筵": 5040,
      "筷": 5041,
      "筹": 5042,
      "签": 5043,
      "简": 5044,
      "箇": 5045,
      "箋": 5046,
      "箍": 5047,
      "箏": 5048,
      "箐": 5049,
      "箔": 5050,
      "箕": 5051,
      "算": 5052,
      "箝": 5053,
      "管": 5054,
      "箩": 5055,
      "箫": 5056,
      "箭": 5057,
      "箱": 5058,
      "箴": 5059,
      "箸": 5060,
      "節": 5061,
      "篁": 5062,
      "範": 5063,
      "篆": 5064,
      "篇": 5065,
      "築": 5066,
      "篑": 5067,
      "篓": 5068,
      "篙": 5069,
      "篝": 5070,
      "篠": 5071,
      "篡": 5072,
      "篤": 5073,
      "篩": 5074,
      "篪": 5075,
      "篮": 5076,
      "篱": 5077,
      "篷": 5078,
      "簇": 5079,
      "簌": 5080,
      "簍": 5081,
      "簡": 5082,
      "簦": 5083,
      "簧": 5084,
      "簪": 5085,
      "簫": 5086,
      "簷": 5087,
      "簸": 5088,
      "簽": 5089,
      "簾": 5090,
      "簿": 5091,
      "籁": 5092,
      "籃": 5093,
      "籌": 5094,
      "籍": 5095,
      "籐": 5096,
      "籟": 5097,
      "籠": 5098,
      "籤": 5099,
      "籬": 5100,
      "籮": 5101,
      "籲": 5102,
      "米": 5103,
      "类": 5104,
      "籼": 5105,
      "籽": 5106,
      "粄": 5107,
      "粉": 5108,
      "粑": 5109,
      "粒": 5110,
      "粕": 5111,
      "粗": 5112,
      "粘": 5113,
      "粟": 5114,
      "粤": 5115,
      "粥": 5116,
      "粧": 5117,
      "粪": 5118,
      "粮": 5119,
      "粱": 5120,
      "粲": 5121,
      "粳": 5122,
      "粵": 5123,
      "粹": 5124,
      "粼": 5125,
      "粽": 5126,
      "精": 5127,
      "粿": 5128,
      "糅": 5129,
      "糊": 5130,
      "糍": 5131,
      "糕": 5132,
      "糖": 5133,
      "糗": 5134,
      "糙": 5135,
      "糜": 5136,
      "糞": 5137,
      "糟": 5138,
      "糠": 5139,
      "糧": 5140,
      "糬": 5141,
      "糯": 5142,
      "糰": 5143,
      "糸": 5144,
      "系": 5145,
      "糾": 5146,
      "紀": 5147,
      "紂": 5148,
      "約": 5149,
      "紅": 5150,
      "紉": 5151,
      "紊": 5152,
      "紋": 5153,
      "納": 5154,
      "紐": 5155,
      "紓": 5156,
      "純": 5157,
      "紗": 5158,
      "紘": 5159,
      "紙": 5160,
      "級": 5161,
      "紛": 5162,
      "紜": 5163,
      "素": 5164,
      "紡": 5165,
      "索": 5166,
      "紧": 5167,
      "紫": 5168,
      "紮": 5169,
      "累": 5170,
      "細": 5171,
      "紳": 5172,
      "紹": 5173,
      "紺": 5174,
      "終": 5175,
      "絃": 5176,
      "組": 5177,
      "絆": 5178,
      "経": 5179,
      "結": 5180,
      "絕": 5181,
      "絞": 5182,
      "絡": 5183,
      "絢": 5184,
      "給": 5185,
      "絨": 5186,
      "絮": 5187,
      "統": 5188,
      "絲": 5189,
      "絳": 5190,
      "絵": 5191,
      "絶": 5192,
      "絹": 5193,
      "綁": 5194,
      "綏": 5195,
      "綑": 5196,
      "經": 5197,
      "継": 5198,
      "続": 5199,
      "綜": 5200,
      "綠": 5201,
      "綢": 5202,
      "綦": 5203,
      "綫": 5204,
      "綬": 5205,
      "維": 5206,
      "綱": 5207,
      "網": 5208,
      "綴": 5209,
      "綵": 5210,
      "綸": 5211,
      "綺": 5212,
      "綻": 5213,
      "綽": 5214,
      "綾": 5215,
      "綿": 5216,
      "緊": 5217,
      "緋": 5218,
      "総": 5219,
      "緑": 5220,
      "緒": 5221,
      "緘": 5222,
      "線": 5223,
      "緝": 5224,
      "緞": 5225,
      "締": 5226,
      "緣": 5227,
      "編": 5228,
      "緩": 5229,
      "緬": 5230,
      "緯": 5231,
      "練": 5232,
      "緹": 5233,
      "緻": 5234,
      "縁": 5235,
      "縄": 5236,
      "縈": 5237,
      "縛": 5238,
      "縝": 5239,
      "縣": 5240,
      "縫": 5241,
      "縮": 5242,
      "縱": 5243,
      "縴": 5244,
      "縷": 5245,
      "總": 5246,
      "績": 5247,
      "繁": 5248,
      "繃": 5249,
      "繆": 5250,
      "繇": 5251,
      "繋": 5252,
      "織": 5253,
      "繕": 5254,
      "繚": 5255,
      "繞": 5256,
      "繡": 5257,
      "繩": 5258,
      "繪": 5259,
      "繫": 5260,
      "繭": 5261,
      "繳": 5262,
      "繹": 5263,
      "繼": 5264,
      "繽": 5265,
      "纂": 5266,
      "續": 5267,
      "纍": 5268,
      "纏": 5269,
      "纓": 5270,
      "纔": 5271,
      "纖": 5272,
      "纜": 5273,
      "纠": 5274,
      "红": 5275,
      "纣": 5276,
      "纤": 5277,
      "约": 5278,
      "级": 5279,
      "纨": 5280,
      "纪": 5281,
      "纫": 5282,
      "纬": 5283,
      "纭": 5284,
      "纯": 5285,
      "纰": 5286,
      "纱": 5287,
      "纲": 5288,
      "纳": 5289,
      "纵": 5290,
      "纶": 5291,
      "纷": 5292,
      "纸": 5293,
      "纹": 5294,
      "纺": 5295,
      "纽": 5296,
      "纾": 5297,
      "线": 5298,
      "绀": 5299,
      "练": 5300,
      "组": 5301,
      "绅": 5302,
      "细": 5303,
      "织": 5304,
      "终": 5305,
      "绊": 5306,
      "绍": 5307,
      "绎": 5308,
      "经": 5309,
      "绑": 5310,
      "绒": 5311,
      "结": 5312,
      "绔": 5313,
      "绕": 5314,
      "绘": 5315,
      "给": 5316,
      "绚": 5317,
      "绛": 5318,
      "络": 5319,
      "绝": 5320,
      "绞": 5321,
      "统": 5322,
      "绡": 5323,
      "绢": 5324,
      "绣": 5325,
      "绥": 5326,
      "绦": 5327,
      "继": 5328,
      "绩": 5329,
      "绪": 5330,
      "绫": 5331,
      "续": 5332,
      "绮": 5333,
      "绯": 5334,
      "绰": 5335,
      "绳": 5336,
      "维": 5337,
      "绵": 5338,
      "绶": 5339,
      "绷": 5340,
      "绸": 5341,
      "绻": 5342,
      "综": 5343,
      "绽": 5344,
      "绾": 5345,
      "绿": 5346,
      "缀": 5347,
      "缄": 5348,
      "缅": 5349,
      "缆": 5350,
      "缇": 5351,
      "缈": 5352,
      "缉": 5353,
      "缎": 5354,
      "缓": 5355,
      "缔": 5356,
      "缕": 5357,
      "编": 5358,
      "缘": 5359,
      "缙": 5360,
      "缚": 5361,
      "缜": 5362,
      "缝": 5363,
      "缠": 5364,
      "缢": 5365,
      "缤": 5366,
      "缥": 5367,
      "缨": 5368,
      "缩": 5369,
      "缪": 5370,
      "缭": 5371,
      "缮": 5372,
      "缰": 5373,
      "缱": 5374,
      "缴": 5375,
      "缸": 5376,
      "缺": 5377,
      "缽": 5378,
      "罂": 5379,
      "罄": 5380,
      "罌": 5381,
      "罐": 5382,
      "网": 5383,
      "罔": 5384,
      "罕": 5385,
      "罗": 5386,
      "罚": 5387,
      "罡": 5388,
      "罢": 5389,
      "罩": 5390,
      "罪": 5391,
      "置": 5392,
      "罰": 5393,
      "署": 5394,
      "罵": 5395,
      "罷": 5396,
      "罹": 5397,
      "羁": 5398,
      "羅": 5399,
      "羈": 5400,
      "羊": 5401,
      "羌": 5402,
      "美": 5403,
      "羔": 5404,
      "羚": 5405,
      "羞": 5406,
      "羟": 5407,
      "羡": 5408,
      "羣": 5409,
      "群": 5410,
      "羥": 5411,
      "羧": 5412,
      "羨": 5413,
      "義": 5414,
      "羯": 5415,
      "羲": 5416,
      "羸": 5417,
      "羹": 5418,
      "羽": 5419,
      "羿": 5420,
      "翁": 5421,
      "翅": 5422,
      "翊": 5423,
      "翌": 5424,
      "翎": 5425,
      "習": 5426,
      "翔": 5427,
      "翘": 5428,
      "翟": 5429,
      "翠": 5430,
      "翡": 5431,
      "翦": 5432,
      "翩": 5433,
      "翰": 5434,
      "翱": 5435,
      "翳": 5436,
      "翹": 5437,
      "翻": 5438,
      "翼": 5439,
      "耀": 5440,
      "老": 5441,
      "考": 5442,
      "耄": 5443,
      "者": 5444,
      "耆": 5445,
      "耋": 5446,
      "而": 5447,
      "耍": 5448,
      "耐": 5449,
      "耒": 5450,
      "耕": 5451,
      "耗": 5452,
      "耘": 5453,
      "耙": 5454,
      "耦": 5455,
      "耨": 5456,
      "耳": 5457,
      "耶": 5458,
      "耷": 5459,
      "耸": 5460,
      "耻": 5461,
      "耽": 5462,
      "耿": 5463,
      "聂": 5464,
      "聆": 5465,
      "聊": 5466,
      "聋": 5467,
      "职": 5468,
      "聒": 5469,
      "联": 5470,
      "聖": 5471,
      "聘": 5472,
      "聚": 5473,
      "聞": 5474,
      "聪": 5475,
      "聯": 5476,
      "聰": 5477,
      "聲": 5478,
      "聳": 5479,
      "聴": 5480,
      "聶": 5481,
      "職": 5482,
      "聽": 5483,
      "聾": 5484,
      "聿": 5485,
      "肃": 5486,
      "肄": 5487,
      "肅": 5488,
      "肆": 5489,
      "肇": 5490,
      "肉": 5491,
      "肋": 5492,
      "肌": 5493,
      "肏": 5494,
      "肓": 5495,
      "肖": 5496,
      "肘": 5497,
      "肚": 5498,
      "肛": 5499,
      "肝": 5500,
      "肠": 5501,
      "股": 5502,
      "肢": 5503,
      "肤": 5504,
      "肥": 5505,
      "肩": 5506,
      "肪": 5507,
      "肮": 5508,
      "肯": 5509,
      "肱": 5510,
      "育": 5511,
      "肴": 5512,
      "肺": 5513,
      "肽": 5514,
      "肾": 5515,
      "肿": 5516,
      "胀": 5517,
      "胁": 5518,
      "胃": 5519,
      "胄": 5520,
      "胆": 5521,
      "背": 5522,
      "胍": 5523,
      "胎": 5524,
      "胖": 5525,
      "胚": 5526,
      "胛": 5527,
      "胜": 5528,
      "胝": 5529,
      "胞": 5530,
      "胡": 5531,
      "胤": 5532,
      "胥": 5533,
      "胧": 5534,
      "胫": 5535,
      "胭": 5536,
      "胯": 5537,
      "胰": 5538,
      "胱": 5539,
      "胳": 5540,
      "胴": 5541,
      "胶": 5542,
      "胸": 5543,
      "胺": 5544,
      "能": 5545,
      "脂": 5546,
      "脅": 5547,
      "脆": 5548,
      "脇": 5549,
      "脈": 5550,
      "脉": 5551,
      "脊": 5552,
      "脍": 5553,
      "脏": 5554,
      "脐": 5555,
      "脑": 5556,
      "脓": 5557,
      "脖": 5558,
      "脘": 5559,
      "脚": 5560,
      "脛": 5561,
      "脣": 5562,
      "脩": 5563,
      "脫": 5564,
      "脯": 5565,
      "脱": 5566,
      "脲": 5567,
      "脳": 5568,
      "脸": 5569,
      "脹": 5570,
      "脾": 5571,
      "腆": 5572,
      "腈": 5573,
      "腊": 5574,
      "腋": 5575,
      "腌": 5576,
      "腎": 5577,
      "腐": 5578,
      "腑": 5579,
      "腓": 5580,
      "腔": 5581,
      "腕": 5582,
      "腥": 5583,
      "腦": 5584,
      "腩": 5585,
      "腫": 5586,
      "腭": 5587,
      "腮": 5588,
      "腰": 5589,
      "腱": 5590,
      "腳": 5591,
      "腴": 5592,
      "腸": 5593,
      "腹": 5594,
      "腺": 5595,
      "腻": 5596,
      "腼": 5597,
      "腾": 5598,
      "腿": 5599,
      "膀": 5600,
      "膈": 5601,
      "膊": 5602,
      "膏": 5603,
      "膑": 5604,
      "膘": 5605,
      "膚": 5606,
      "膛": 5607,
      "膜": 5608,
      "膝": 5609,
      "膠": 5610,
      "膦": 5611,
      "膨": 5612,
      "膩": 5613,
      "膳": 5614,
      "膺": 5615,
      "膻": 5616,
      "膽": 5617,
      "膾": 5618,
      "膿": 5619,
      "臀": 5620,
      "臂": 5621,
      "臃": 5622,
      "臆": 5623,
      "臉": 5624,
      "臊": 5625,
      "臍": 5626,
      "臓": 5627,
      "臘": 5628,
      "臟": 5629,
      "臣": 5630,
      "臥": 5631,
      "臧": 5632,
      "臨": 5633,
      "自": 5634,
      "臬": 5635,
      "臭": 5636,
      "至": 5637,
      "致": 5638,
      "臺": 5639,
      "臻": 5640,
      "臼": 5641,
      "臾": 5642,
      "舀": 5643,
      "舂": 5644,
      "舅": 5645,
      "舆": 5646,
      "與": 5647,
      "興": 5648,
      "舉": 5649,
      "舊": 5650,
      "舌": 5651,
      "舍": 5652,
      "舎": 5653,
      "舐": 5654,
      "舒": 5655,
      "舔": 5656,
      "舖": 5657,
      "舗": 5658,
      "舛": 5659,
      "舜": 5660,
      "舞": 5661,
      "舟": 5662,
      "航": 5663,
      "舫": 5664,
      "般": 5665,
      "舰": 5666,
      "舱": 5667,
      "舵": 5668,
      "舶": 5669,
      "舷": 5670,
      "舸": 5671,
      "船": 5672,
      "舺": 5673,
      "舾": 5674,
      "艇": 5675,
      "艋": 5676,
      "艘": 5677,
      "艙": 5678,
      "艦": 5679,
      "艮": 5680,
      "良": 5681,
      "艰": 5682,
      "艱": 5683,
      "色": 5684,
      "艳": 5685,
      "艷": 5686,
      "艹": 5687,
      "艺": 5688,
      "艾": 5689,
      "节": 5690,
      "芃": 5691,
      "芈": 5692,
      "芊": 5693,
      "芋": 5694,
      "芍": 5695,
      "芎": 5696,
      "芒": 5697,
      "芙": 5698,
      "芜": 5699,
      "芝": 5700,
      "芡": 5701,
      "芥": 5702,
      "芦": 5703,
      "芩": 5704,
      "芪": 5705,
      "芫": 5706,
      "芬": 5707,
      "芭": 5708,
      "芮": 5709,
      "芯": 5710,
      "花": 5711,
      "芳": 5712,
      "芷": 5713,
      "芸": 5714,
      "芹": 5715,
      "芻": 5716,
      "芽": 5717,
      "芾": 5718,
      "苁": 5719,
      "苄": 5720,
      "苇": 5721,
      "苋": 5722,
      "苍": 5723,
      "苏": 5724,
      "苑": 5725,
      "苒": 5726,
      "苓": 5727,
      "苔": 5728,
      "苕": 5729,
      "苗": 5730,
      "苛": 5731,
      "苜": 5732,
      "苞": 5733,
      "苟": 5734,
      "苡": 5735,
      "苣": 5736,
      "若": 5737,
      "苦": 5738,
      "苫": 5739,
      "苯": 5740,
      "英": 5741,
      "苷": 5742,
      "苹": 5743,
      "苻": 5744,
      "茁": 5745,
      "茂": 5746,
      "范": 5747,
      "茄": 5748,
      "茅": 5749,
      "茉": 5750,
      "茎": 5751,
      "茏": 5752,
      "茗": 5753,
      "茜": 5754,
      "茧": 5755,
      "茨": 5756,
      "茫": 5757,
      "茬": 5758,
      "茭": 5759,
      "茯": 5760,
      "茱": 5761,
      "茲": 5762,
      "茴": 5763,
      "茵": 5764,
      "茶": 5765,
      "茸": 5766,
      "茹": 5767,
      "茼": 5768,
      "荀": 5769,
      "荃": 5770,
      "荆": 5771,
      "草": 5772,
      "荊": 5773,
      "荏": 5774,
      "荐": 5775,
      "荒": 5776,
      "荔": 5777,
      "荖": 5778,
      "荘": 5779,
      "荚": 5780,
      "荞": 5781,
      "荟": 5782,
      "荠": 5783,
      "荡": 5784,
      "荣": 5785,
      "荤": 5786,
      "荥": 5787,
      "荧": 5788,
      "荨": 5789,
      "荪": 5790,
      "荫": 5791,
      "药": 5792,
      "荳": 5793,
      "荷": 5794,
      "荸": 5795,
      "荻": 5796,
      "荼": 5797,
      "荽": 5798,
      "莅": 5799,
      "莆": 5800,
      "莉": 5801,
      "莊": 5802,
      "莎": 5803,
      "莒": 5804,
      "莓": 5805,
      "莖": 5806,
      "莘": 5807,
      "莞": 5808,
      "莠": 5809,
      "莢": 5810,
      "莧": 5811,
      "莪": 5812,
      "莫": 5813,
      "莱": 5814,
      "莲": 5815,
      "莴": 5816,
      "获": 5817,
      "莹": 5818,
      "莺": 5819,
      "莽": 5820,
      "莿": 5821,
      "菀": 5822,
      "菁": 5823,
      "菅": 5824,
      "菇": 5825,
      "菈": 5826,
      "菊": 5827,
      "菌": 5828,
      "菏": 5829,
      "菓": 5830,
      "菖": 5831,
      "菘": 5832,
      "菜": 5833,
      "菟": 5834,
      "菠": 5835,
      "菡": 5836,
      "菩": 5837,
      "華": 5838,
      "菱": 5839,
      "菲": 5840,
      "菸": 5841,
      "菽": 5842,
      "萁": 5843,
      "萃": 5844,
      "萄": 5845,
      "萊": 5846,
      "萋": 5847,
      "萌": 5848,
      "萍": 5849,
      "萎": 5850,
      "萘": 5851,
      "萝": 5852,
      "萤": 5853,
      "营": 5854,
      "萦": 5855,
      "萧": 5856,
      "萨": 5857,
      "萩": 5858,
      "萬": 5859,
      "萱": 5860,
      "萵": 5861,
      "萸": 5862,
      "萼": 5863,
      "落": 5864,
      "葆": 5865,
      "葉": 5866,
      "著": 5867,
      "葚": 5868,
      "葛": 5869,
      "葡": 5870,
      "董": 5871,
      "葦": 5872,
      "葩": 5873,
      "葫": 5874,
      "葬": 5875,
      "葭": 5876,
      "葯": 5877,
      "葱": 5878,
      "葳": 5879,
      "葵": 5880,
      "葷": 5881,
      "葺": 5882,
      "蒂": 5883,
      "蒋": 5884,
      "蒐": 5885,
      "蒔": 5886,
      "蒙": 5887,
      "蒜": 5888,
      "蒞": 5889,
      "蒟": 5890,
      "蒡": 5891,
      "蒨": 5892,
      "蒲": 5893,
      "蒸": 5894,
      "蒹": 5895,
      "蒻": 5896,
      "蒼": 5897,
      "蒿": 5898,
      "蓁": 5899,
      "蓄": 5900,
      "蓆": 5901,
      "蓉": 5902,
      "蓋": 5903,
      "蓑": 5904,
      "蓓": 5905,
      "蓖": 5906,
      "蓝": 5907,
      "蓟": 5908,
      "蓦": 5909,
      "蓬": 5910,
      "蓮": 5911,
      "蓼": 5912,
      "蓿": 5913,
      "蔑": 5914,
      "蔓": 5915,
      "蔔": 5916,
      "蔗": 5917,
      "蔘": 5918,
      "蔚": 5919,
      "蔡": 5920,
      "蔣": 5921,
      "蔥": 5922,
      "蔫": 5923,
      "蔬": 5924,
      "蔭": 5925,
      "蔵": 5926,
      "蔷": 5927,
      "蔺": 5928,
      "蔻": 5929,
      "蔼": 5930,
      "蔽": 5931,
      "蕁": 5932,
      "蕃": 5933,
      "蕈": 5934,
      "蕉": 5935,
      "蕊": 5936,
      "蕎": 5937,
      "蕙": 5938,
      "蕤": 5939,
      "蕨": 5940,
      "蕩": 5941,
      "蕪": 5942,
      "蕭": 5943,
      "蕲": 5944,
      "蕴": 5945,
      "蕻": 5946,
      "蕾": 5947,
      "薄": 5948,
      "薅": 5949,
      "薇": 5950,
      "薈": 5951,
      "薊": 5952,
      "薏": 5953,
      "薑": 5954,
      "薔": 5955,
      "薙": 5956,
      "薛": 5957,
      "薦": 5958,
      "薨": 5959,
      "薩": 5960,
      "薪": 5961,
      "薬": 5962,
      "薯": 5963,
      "薰": 5964,
      "薹": 5965,
      "藉": 5966,
      "藍": 5967,
      "藏": 5968,
      "藐": 5969,
      "藓": 5970,
      "藕": 5971,
      "藜": 5972,
      "藝": 5973,
      "藤": 5974,
      "藥": 5975,
      "藩": 5976,
      "藹": 5977,
      "藻": 5978,
      "藿": 5979,
      "蘆": 5980,
      "蘇": 5981,
      "蘊": 5982,
      "蘋": 5983,
      "蘑": 5984,
      "蘚": 5985,
      "蘭": 5986,
      "蘸": 5987,
      "蘼": 5988,
      "蘿": 5989,
      "虎": 5990,
      "虏": 5991,
      "虐": 5992,
      "虑": 5993,
      "虔": 5994,
      "處": 5995,
      "虚": 5996,
      "虛": 5997,
      "虜": 5998,
      "虞": 5999,
      "號": 6000,
      "虢": 6001,
      "虧": 6002,
      "虫": 6003,
      "虬": 6004,
      "虱": 6005,
      "虹": 6006,
      "虻": 6007,
      "虽": 6008,
      "虾": 6009,
      "蚀": 6010,
      "蚁": 6011,
      "蚂": 6012,
      "蚊": 6013,
      "蚌": 6014,
      "蚓": 6015,
      "蚕": 6016,
      "蚜": 6017,
      "蚝": 6018,
      "蚣": 6019,
      "蚤": 6020,
      "蚩": 6021,
      "蚪": 6022,
      "蚯": 6023,
      "蚱": 6024,
      "蚵": 6025,
      "蛀": 6026,
      "蛆": 6027,
      "蛇": 6028,
      "蛊": 6029,
      "蛋": 6030,
      "蛎": 6031,
      "蛐": 6032,
      "蛔": 6033,
      "蛙": 6034,
      "蛛": 6035,
      "蛟": 6036,
      "蛤": 6037,
      "蛭": 6038,
      "蛮": 6039,
      "蛰": 6040,
      "蛳": 6041,
      "蛹": 6042,
      "蛻": 6043,
      "蛾": 6044,
      "蜀": 6045,
      "蜂": 6046,
      "蜃": 6047,
      "蜆": 6048,
      "蜇": 6049,
      "蜈": 6050,
      "蜊": 6051,
      "蜍": 6052,
      "蜒": 6053,
      "蜓": 6054,
      "蜕": 6055,
      "蜗": 6056,
      "蜘": 6057,
      "蜚": 6058,
      "蜜": 6059,
      "蜡": 6060,
      "蜢": 6061,
      "蜥": 6062,
      "蜱": 6063,
      "蜴": 6064,
      "蜷": 6065,
      "蜻": 6066,
      "蜿": 6067,
      "蝇": 6068,
      "蝈": 6069,
      "蝉": 6070,
      "蝌": 6071,
      "蝎": 6072,
      "蝕": 6073,
      "蝗": 6074,
      "蝙": 6075,
      "蝟": 6076,
      "蝠": 6077,
      "蝦": 6078,
      "蝨": 6079,
      "蝴": 6080,
      "蝶": 6081,
      "蝸": 6082,
      "蝼": 6083,
      "螂": 6084,
      "螃": 6085,
      "融": 6086,
      "螞": 6087,
      "螢": 6088,
      "螨": 6089,
      "螯": 6090,
      "螳": 6091,
      "螺": 6092,
      "蟀": 6093,
      "蟄": 6094,
      "蟆": 6095,
      "蟋": 6096,
      "蟎": 6097,
      "蟑": 6098,
      "蟒": 6099,
      "蟠": 6100,
      "蟬": 6101,
      "蟲": 6102,
      "蟹": 6103,
      "蟻": 6104,
      "蟾": 6105,
      "蠅": 6106,
      "蠍": 6107,
      "蠔": 6108,
      "蠕": 6109,
      "蠛": 6110,
      "蠟": 6111,
      "蠡": 6112,
      "蠢": 6113,
      "蠣": 6114,
      "蠱": 6115,
      "蠶": 6116,
      "蠹": 6117,
      "蠻": 6118,
      "血": 6119,
      "衄": 6120,
      "衅": 6121,
      "衆": 6122,
      "行": 6123,
      "衍": 6124,
      "術": 6125,
      "衔": 6126,
      "街": 6127,
      "衙": 6128,
      "衛": 6129,
      "衝": 6130,
      "衞": 6131,
      "衡": 6132,
      "衢": 6133,
      "衣": 6134,
      "补": 6135,
      "表": 6136,
      "衩": 6137,
      "衫": 6138,
      "衬": 6139,
      "衮": 6140,
      "衰": 6141,
      "衲": 6142,
      "衷": 6143,
      "衹": 6144,
      "衾": 6145,
      "衿": 6146,
      "袁": 6147,
      "袂": 6148,
      "袄": 6149,
      "袅": 6150,
      "袈": 6151,
      "袋": 6152,
      "袍": 6153,
      "袒": 6154,
      "袖": 6155,
      "袜": 6156,
      "袞": 6157,
      "袤": 6158,
      "袪": 6159,
      "被": 6160,
      "袭": 6161,
      "袱": 6162,
      "裁": 6163,
      "裂": 6164,
      "装": 6165,
      "裆": 6166,
      "裊": 6167,
      "裏": 6168,
      "裔": 6169,
      "裕": 6170,
      "裘": 6171,
      "裙": 6172,
      "補": 6173,
      "裝": 6174,
      "裟": 6175,
      "裡": 6176,
      "裤": 6177,
      "裨": 6178,
      "裱": 6179,
      "裳": 6180,
      "裴": 6181,
      "裸": 6182,
      "裹": 6183,
      "製": 6184,
      "裾": 6185,
      "褂": 6186,
      "複": 6187,
      "褐": 6188,
      "褒": 6189,
      "褓": 6190,
      "褔": 6191,
      "褚": 6192,
      "褥": 6193,
      "褪": 6194,
      "褫": 6195,
      "褲": 6196,
      "褶": 6197,
      "褻": 6198,
      "襁": 6199,
      "襄": 6200,
      "襟": 6201,
      "襠": 6202,
      "襪": 6203,
      "襬": 6204,
      "襯": 6205,
      "襲": 6206,
      "西": 6207,
      "要": 6208,
      "覃": 6209,
      "覆": 6210,
      "覇": 6211,
      "見": 6212,
      "規": 6213,
      "覓": 6214,
      "視": 6215,
      "覚": 6216,
      "覦": 6217,
      "覧": 6218,
      "親": 6219,
      "覬": 6220,
      "観": 6221,
      "覷": 6222,
      "覺": 6223,
      "覽": 6224,
      "觀": 6225,
      "见": 6226,
      "观": 6227,
      "规": 6228,
      "觅": 6229,
      "视": 6230,
      "览": 6231,
      "觉": 6232,
      "觊": 6233,
      "觎": 6234,
      "觐": 6235,
      "觑": 6236,
      "角": 6237,
      "觞": 6238,
      "解": 6239,
      "觥": 6240,
      "触": 6241,
      "觸": 6242,
      "言": 6243,
      "訂": 6244,
      "計": 6245,
      "訊": 6246,
      "討": 6247,
      "訓": 6248,
      "訕": 6249,
      "訖": 6250,
      "託": 6251,
      "記": 6252,
      "訛": 6253,
      "訝": 6254,
      "訟": 6255,
      "訣": 6256,
      "訥": 6257,
      "訪": 6258,
      "設": 6259,
      "許": 6260,
      "訳": 6261,
      "訴": 6262,
      "訶": 6263,
      "診": 6264,
      "註": 6265,
      "証": 6266,
      "詆": 6267,
      "詐": 6268,
      "詔": 6269,
      "評": 6270,
      "詛": 6271,
      "詞": 6272,
      "詠": 6273,
      "詡": 6274,
      "詢": 6275,
      "詣": 6276,
      "試": 6277,
      "詩": 6278,
      "詫": 6279,
      "詬": 6280,
      "詭": 6281,
      "詮": 6282,
      "詰": 6283,
      "話": 6284,
      "該": 6285,
      "詳": 6286,
      "詹": 6287,
      "詼": 6288,
      "誅": 6289,
      "誇": 6290,
      "誉": 6291,
      "誌": 6292,
      "認": 6293,
      "誓": 6294,
      "誕": 6295,
      "誘": 6296,
      "語": 6297,
      "誠": 6298,
      "誡": 6299,
      "誣": 6300,
      "誤": 6301,
      "誥": 6302,
      "誦": 6303,
      "誨": 6304,
      "說": 6305,
      "説": 6306,
      "読": 6307,
      "誰": 6308,
      "課": 6309,
      "誹": 6310,
      "誼": 6311,
      "調": 6312,
      "諄": 6313,
      "談": 6314,
      "請": 6315,
      "諏": 6316,
      "諒": 6317,
      "論": 6318,
      "諗": 6319,
      "諜": 6320,
      "諡": 6321,
      "諦": 6322,
      "諧": 6323,
      "諫": 6324,
      "諭": 6325,
      "諮": 6326,
      "諱": 6327,
      "諳": 6328,
      "諷": 6329,
      "諸": 6330,
      "諺": 6331,
      "諾": 6332,
      "謀": 6333,
      "謁": 6334,
      "謂": 6335,
      "謄": 6336,
      "謊": 6337,
      "謎": 6338,
      "謐": 6339,
      "謔": 6340,
      "謗": 6341,
      "謙": 6342,
      "講": 6343,
      "謝": 6344,
      "謠": 6345,
      "謨": 6346,
      "謬": 6347,
      "謹": 6348,
      "謾": 6349,
      "譁": 6350,
      "證": 6351,
      "譎": 6352,
      "譏": 6353,
      "識": 6354,
      "譙": 6355,
      "譚": 6356,
      "譜": 6357,
      "警": 6358,
      "譬": 6359,
      "譯": 6360,
      "議": 6361,
      "譲": 6362,
      "譴": 6363,
      "護": 6364,
      "譽": 6365,
      "讀": 6366,
      "變": 6367,
      "讓": 6368,
      "讚": 6369,
      "讞": 6370,
      "计": 6371,
      "订": 6372,
      "认": 6373,
      "讥": 6374,
      "讧": 6375,
      "讨": 6376,
      "让": 6377,
      "讪": 6378,
      "讫": 6379,
      "训": 6380,
      "议": 6381,
      "讯": 6382,
      "记": 6383,
      "讲": 6384,
      "讳": 6385,
      "讴": 6386,
      "讶": 6387,
      "讷": 6388,
      "许": 6389,
      "讹": 6390,
      "论": 6391,
      "讼": 6392,
      "讽": 6393,
      "设": 6394,
      "访": 6395,
      "诀": 6396,
      "证": 6397,
      "诃": 6398,
      "评": 6399,
      "诅": 6400,
      "识": 6401,
      "诈": 6402,
      "诉": 6403,
      "诊": 6404,
      "诋": 6405,
      "词": 6406,
      "诏": 6407,
      "译": 6408,
      "试": 6409,
      "诗": 6410,
      "诘": 6411,
      "诙": 6412,
      "诚": 6413,
      "诛": 6414,
      "话": 6415,
      "诞": 6416,
      "诟": 6417,
      "诠": 6418,
      "诡": 6419,
      "询": 6420,
      "诣": 6421,
      "诤": 6422,
      "该": 6423,
      "详": 6424,
      "诧": 6425,
      "诩": 6426,
      "诫": 6427,
      "诬": 6428,
      "语": 6429,
      "误": 6430,
      "诰": 6431,
      "诱": 6432,
      "诲": 6433,
      "说": 6434,
      "诵": 6435,
      "诶": 6436,
      "请": 6437,
      "诸": 6438,
      "诺": 6439,
      "读": 6440,
      "诽": 6441,
      "课": 6442,
      "诿": 6443,
      "谀": 6444,
      "谁": 6445,
      "调": 6446,
      "谄": 6447,
      "谅": 6448,
      "谆": 6449,
      "谈": 6450,
      "谊": 6451,
      "谋": 6452,
      "谌": 6453,
      "谍": 6454,
      "谎": 6455,
      "谏": 6456,
      "谐": 6457,
      "谑": 6458,
      "谒": 6459,
      "谓": 6460,
      "谔": 6461,
      "谕": 6462,
      "谗": 6463,
      "谘": 6464,
      "谙": 6465,
      "谚": 6466,
      "谛": 6467,
      "谜": 6468,
      "谟": 6469,
      "谢": 6470,
      "谣": 6471,
      "谤": 6472,
      "谥": 6473,
      "谦": 6474,
      "谧": 6475,
      "谨": 6476,
      "谩": 6477,
      "谪": 6478,
      "谬": 6479,
      "谭": 6480,
      "谯": 6481,
      "谱": 6482,
      "谲": 6483,
      "谴": 6484,
      "谶": 6485,
      "谷": 6486,
      "豁": 6487,
      "豆": 6488,
      "豇": 6489,
      "豈": 6490,
      "豉": 6491,
      "豊": 6492,
      "豌": 6493,
      "豎": 6494,
      "豐": 6495,
      "豔": 6496,
      "豚": 6497,
      "象": 6498,
      "豢": 6499,
      "豪": 6500,
      "豫": 6501,
      "豬": 6502,
      "豹": 6503,
      "豺": 6504,
      "貂": 6505,
      "貅": 6506,
      "貌": 6507,
      "貓": 6508,
      "貔": 6509,
      "貘": 6510,
      "貝": 6511,
      "貞": 6512,
      "負": 6513,
      "財": 6514,
      "貢": 6515,
      "貧": 6516,
      "貨": 6517,
      "販": 6518,
      "貪": 6519,
      "貫": 6520,
      "責": 6521,
      "貯": 6522,
      "貰": 6523,
      "貳": 6524,
      "貴": 6525,
      "貶": 6526,
      "買": 6527,
      "貸": 6528,
      "費": 6529,
      "貼": 6530,
      "貽": 6531,
      "貿": 6532,
      "賀": 6533,
      "賁": 6534,
      "賂": 6535,
      "賃": 6536,
      "賄": 6537,
      "資": 6538,
      "賈": 6539,
      "賊": 6540,
      "賑": 6541,
      "賓": 6542,
      "賜": 6543,
      "賞": 6544,
      "賠": 6545,
      "賡": 6546,
      "賢": 6547,
      "賣": 6548,
      "賤": 6549,
      "賦": 6550,
      "質": 6551,
      "賬": 6552,
      "賭": 6553,
      "賴": 6554,
      "賺": 6555,
      "購": 6556,
      "賽": 6557,
      "贅": 6558,
      "贈": 6559,
      "贊": 6560,
      "贍": 6561,
      "贏": 6562,
      "贓": 6563,
      "贖": 6564,
      "贛": 6565,
      "贝": 6566,
      "贞": 6567,
      "负": 6568,
      "贡": 6569,
      "财": 6570,
      "责": 6571,
      "贤": 6572,
      "败": 6573,
      "账": 6574,
      "货": 6575,
      "质": 6576,
      "贩": 6577,
      "贪": 6578,
      "贫": 6579,
      "贬": 6580,
      "购": 6581,
      "贮": 6582,
      "贯": 6583,
      "贰": 6584,
      "贱": 6585,
      "贲": 6586,
      "贴": 6587,
      "贵": 6588,
      "贷": 6589,
      "贸": 6590,
      "费": 6591,
      "贺": 6592,
      "贻": 6593,
      "贼": 6594,
      "贾": 6595,
      "贿": 6596,
      "赁": 6597,
      "赂": 6598,
      "赃": 6599,
      "资": 6600,
      "赅": 6601,
      "赈": 6602,
      "赊": 6603,
      "赋": 6604,
      "赌": 6605,
      "赎": 6606,
      "赏": 6607,
      "赐": 6608,
      "赓": 6609,
      "赔": 6610,
      "赖": 6611,
      "赘": 6612,
      "赚": 6613,
      "赛": 6614,
      "赝": 6615,
      "赞": 6616,
      "赠": 6617,
      "赡": 6618,
      "赢": 6619,
      "赣": 6620,
      "赤": 6621,
      "赦": 6622,
      "赧": 6623,
      "赫": 6624,
      "赭": 6625,
      "走": 6626,
      "赳": 6627,
      "赴": 6628,
      "赵": 6629,
      "赶": 6630,
      "起": 6631,
      "趁": 6632,
      "超": 6633,
      "越": 6634,
      "趋": 6635,
      "趕": 6636,
      "趙": 6637,
      "趟": 6638,
      "趣": 6639,
      "趨": 6640,
      "足": 6641,
      "趴": 6642,
      "趵": 6643,
      "趸": 6644,
      "趺": 6645,
      "趾": 6646,
      "跃": 6647,
      "跄": 6648,
      "跆": 6649,
      "跋": 6650,
      "跌": 6651,
      "跎": 6652,
      "跑": 6653,
      "跖": 6654,
      "跚": 6655,
      "跛": 6656,
      "距": 6657,
      "跟": 6658,
      "跡": 6659,
      "跤": 6660,
      "跨": 6661,
      "跩": 6662,
      "跪": 6663,
      "路": 6664,
      "跳": 6665,
      "践": 6666,
      "跷": 6667,
      "跹": 6668,
      "跺": 6669,
      "跻": 6670,
      "踉": 6671,
      "踊": 6672,
      "踌": 6673,
      "踏": 6674,
      "踐": 6675,
      "踝": 6676,
      "踞": 6677,
      "踟": 6678,
      "踢": 6679,
      "踩": 6680,
      "踪": 6681,
      "踮": 6682,
      "踱": 6683,
      "踴": 6684,
      "踵": 6685,
      "踹": 6686,
      "蹂": 6687,
      "蹄": 6688,
      "蹇": 6689,
      "蹈": 6690,
      "蹉": 6691,
      "蹊": 6692,
      "蹋": 6693,
      "蹑": 6694,
      "蹒": 6695,
      "蹙": 6696,
      "蹟": 6697,
      "蹣": 6698,
      "蹤": 6699,
      "蹦": 6700,
      "蹩": 6701,
      "蹬": 6702,
      "蹭": 6703,
      "蹲": 6704,
      "蹴": 6705,
      "蹶": 6706,
      "蹺": 6707,
      "蹼": 6708,
      "蹿": 6709,
      "躁": 6710,
      "躇": 6711,
      "躉": 6712,
      "躊": 6713,
      "躋": 6714,
      "躍": 6715,
      "躏": 6716,
      "躪": 6717,
      "身": 6718,
      "躬": 6719,
      "躯": 6720,
      "躲": 6721,
      "躺": 6722,
      "軀": 6723,
      "車": 6724,
      "軋": 6725,
      "軌": 6726,
      "軍": 6727,
      "軒": 6728,
      "軟": 6729,
      "転": 6730,
      "軸": 6731,
      "軼": 6732,
      "軽": 6733,
      "軾": 6734,
      "較": 6735,
      "載": 6736,
      "輒": 6737,
      "輓": 6738,
      "輔": 6739,
      "輕": 6740,
      "輛": 6741,
      "輝": 6742,
      "輟": 6743,
      "輩": 6744,
      "輪": 6745,
      "輯": 6746,
      "輸": 6747,
      "輻": 6748,
      "輾": 6749,
      "輿": 6750,
      "轄": 6751,
      "轅": 6752,
      "轆": 6753,
      "轉": 6754,
      "轍": 6755,
      "轎": 6756,
      "轟": 6757,
      "车": 6758,
      "轧": 6759,
      "轨": 6760,
      "轩": 6761,
      "转": 6762,
      "轭": 6763,
      "轮": 6764,
      "软": 6765,
      "轰": 6766,
      "轲": 6767,
      "轴": 6768,
      "轶": 6769,
      "轻": 6770,
      "轼": 6771,
      "载": 6772,
      "轿": 6773,
      "较": 6774,
      "辄": 6775,
      "辅": 6776,
      "辆": 6777,
      "辇": 6778,
      "辈": 6779,
      "辉": 6780,
      "辊": 6781,
      "辍": 6782,
      "辐": 6783,
      "辑": 6784,
      "输": 6785,
      "辕": 6786,
      "辖": 6787,
      "辗": 6788,
      "辘": 6789,
      "辙": 6790,
      "辛": 6791,
      "辜": 6792,
      "辞": 6793,
      "辟": 6794,
      "辣": 6795,
      "辦": 6796,
      "辨": 6797,
      "辩": 6798,
      "辫": 6799,
      "辭": 6800,
      "辮": 6801,
      "辯": 6802,
      "辰": 6803,
      "辱": 6804,
      "農": 6805,
      "边": 6806,
      "辺": 6807,
      "辻": 6808,
      "込": 6809,
      "辽": 6810,
      "达": 6811,
      "迁": 6812,
      "迂": 6813,
      "迄": 6814,
      "迅": 6815,
      "过": 6816,
      "迈": 6817,
      "迎": 6818,
      "运": 6819,
      "近": 6820,
      "返": 6821,
      "还": 6822,
      "这": 6823,
      "进": 6824,
      "远": 6825,
      "违": 6826,
      "连": 6827,
      "迟": 6828,
      "迢": 6829,
      "迤": 6830,
      "迥": 6831,
      "迦": 6832,
      "迩": 6833,
      "迪": 6834,
      "迫": 6835,
      "迭": 6836,
      "述": 6837,
      "迴": 6838,
      "迷": 6839,
      "迸": 6840,
      "迹": 6841,
      "迺": 6842,
      "追": 6843,
      "退": 6844,
      "送": 6845,
      "适": 6846,
      "逃": 6847,
      "逅": 6848,
      "逆": 6849,
      "选": 6850,
      "逊": 6851,
      "逍": 6852,
      "透": 6853,
      "逐": 6854,
      "递": 6855,
      "途": 6856,
      "逕": 6857,
      "逗": 6858,
      "這": 6859,
      "通": 6860,
      "逛": 6861,
      "逝": 6862,
      "逞": 6863,
      "速": 6864,
      "造": 6865,
      "逢": 6866,
      "連": 6867,
      "逮": 6868,
      "週": 6869,
      "進": 6870,
      "逵": 6871,
      "逶": 6872,
      "逸": 6873,
      "逻": 6874,
      "逼": 6875,
      "逾": 6876,
      "遁": 6877,
      "遂": 6878,
      "遅": 6879,
      "遇": 6880,
      "遊": 6881,
      "運": 6882,
      "遍": 6883,
      "過": 6884,
      "遏": 6885,
      "遐": 6886,
      "遑": 6887,
      "遒": 6888,
      "道": 6889,
      "達": 6890,
      "違": 6891,
      "遗": 6892,
      "遙": 6893,
      "遛": 6894,
      "遜": 6895,
      "遞": 6896,
      "遠": 6897,
      "遢": 6898,
      "遣": 6899,
      "遥": 6900,
      "遨": 6901,
      "適": 6902,
      "遭": 6903,
      "遮": 6904,
      "遲": 6905,
      "遴": 6906,
      "遵": 6907,
      "遶": 6908,
      "遷": 6909,
      "選": 6910,
      "遺": 6911,
      "遼": 6912,
      "遽": 6913,
      "避": 6914,
      "邀": 6915,
      "邁": 6916,
      "邂": 6917,
      "邃": 6918,
      "還": 6919,
      "邇": 6920,
      "邈": 6921,
      "邊": 6922,
      "邋": 6923,
      "邏": 6924,
      "邑": 6925,
      "邓": 6926,
      "邕": 6927,
      "邛": 6928,
      "邝": 6929,
      "邢": 6930,
      "那": 6931,
      "邦": 6932,
      "邨": 6933,
      "邪": 6934,
      "邬": 6935,
      "邮": 6936,
      "邯": 6937,
      "邰": 6938,
      "邱": 6939,
      "邳": 6940,
      "邵": 6941,
      "邸": 6942,
      "邹": 6943,
      "邺": 6944,
      "邻": 6945,
      "郁": 6946,
      "郅": 6947,
      "郊": 6948,
      "郎": 6949,
      "郑": 6950,
      "郜": 6951,
      "郝": 6952,
      "郡": 6953,
      "郢": 6954,
      "郤": 6955,
      "郦": 6956,
      "郧": 6957,
      "部": 6958,
      "郫": 6959,
      "郭": 6960,
      "郴": 6961,
      "郵": 6962,
      "郷": 6963,
      "郸": 6964,
      "都": 6965,
      "鄂": 6966,
      "鄉": 6967,
      "鄒": 6968,
      "鄔": 6969,
      "鄙": 6970,
      "鄞": 6971,
      "鄢": 6972,
      "鄧": 6973,
      "鄭": 6974,
      "鄰": 6975,
      "鄱": 6976,
      "鄲": 6977,
      "鄺": 6978,
      "酉": 6979,
      "酊": 6980,
      "酋": 6981,
      "酌": 6982,
      "配": 6983,
      "酐": 6984,
      "酒": 6985,
      "酗": 6986,
      "酚": 6987,
      "酝": 6988,
      "酢": 6989,
      "酣": 6990,
      "酥": 6991,
      "酩": 6992,
      "酪": 6993,
      "酬": 6994,
      "酮": 6995,
      "酯": 6996,
      "酰": 6997,
      "酱": 6998,
      "酵": 6999,
      "酶": 7000,
      "酷": 7001,
      "酸": 7002,
      "酿": 7003,
      "醃": 7004,
      "醇": 7005,
      "醉": 7006,
      "醋": 7007,
      "醍": 7008,
      "醐": 7009,
      "醒": 7010,
      "醚": 7011,
      "醛": 7012,
      "醜": 7013,
      "醞": 7014,
      "醣": 7015,
      "醪": 7016,
      "醫": 7017,
      "醬": 7018,
      "醮": 7019,
      "醯": 7020,
      "醴": 7021,
      "醺": 7022,
      "釀": 7023,
      "釁": 7024,
      "采": 7025,
      "釉": 7026,
      "释": 7027,
      "釋": 7028,
      "里": 7029,
      "重": 7030,
      "野": 7031,
      "量": 7032,
      "釐": 7033,
      "金": 7034,
      "釗": 7035,
      "釘": 7036,
      "釜": 7037,
      "針": 7038,
      "釣": 7039,
      "釦": 7040,
      "釧": 7041,
      "釵": 7042,
      "鈀": 7043,
      "鈉": 7044,
      "鈍": 7045,
      "鈎": 7046,
      "鈔": 7047,
      "鈕": 7048,
      "鈞": 7049,
      "鈣": 7050,
      "鈦": 7051,
      "鈪": 7052,
      "鈴": 7053,
      "鈺": 7054,
      "鈾": 7055,
      "鉀": 7056,
      "鉄": 7057,
      "鉅": 7058,
      "鉉": 7059,
      "鉑": 7060,
      "鉗": 7061,
      "鉚": 7062,
      "鉛": 7063,
      "鉤": 7064,
      "鉴": 7065,
      "鉻": 7066,
      "銀": 7067,
      "銃": 7068,
      "銅": 7069,
      "銑": 7070,
      "銓": 7071,
      "銖": 7072,
      "銘": 7073,
      "銜": 7074,
      "銬": 7075,
      "銭": 7076,
      "銮": 7077,
      "銳": 7078,
      "銷": 7079,
      "銹": 7080,
      "鋁": 7081,
      "鋅": 7082,
      "鋒": 7083,
      "鋤": 7084,
      "鋪": 7085,
      "鋰": 7086,
      "鋸": 7087,
      "鋼": 7088,
      "錄": 7089,
      "錐": 7090,
      "錘": 7091,
      "錚": 7092,
      "錠": 7093,
      "錢": 7094,
      "錦": 7095,
      "錨": 7096,
      "錫": 7097,
      "錮": 7098,
      "錯": 7099,
      "録": 7100,
      "錳": 7101,
      "錶": 7102,
      "鍊": 7103,
      "鍋": 7104,
      "鍍": 7105,
      "鍛": 7106,
      "鍥": 7107,
      "鍰": 7108,
      "鍵": 7109,
      "鍺": 7110,
      "鍾": 7111,
      "鎂": 7112,
      "鎊": 7113,
      "鎌": 7114,
      "鎏": 7115,
      "鎔": 7116,
      "鎖": 7117,
      "鎗": 7118,
      "鎚": 7119,
      "鎧": 7120,
      "鎬": 7121,
      "鎮": 7122,
      "鎳": 7123,
      "鏈": 7124,
      "鏖": 7125,
      "鏗": 7126,
      "鏘": 7127,
      "鏞": 7128,
      "鏟": 7129,
      "鏡": 7130,
      "鏢": 7131,
      "鏤": 7132,
      "鏽": 7133,
      "鐘": 7134,
      "鐮": 7135,
      "鐲": 7136,
      "鐳": 7137,
      "鐵": 7138,
      "鐸": 7139,
      "鐺": 7140,
      "鑄": 7141,
      "鑊": 7142,
      "鑑": 7143,
      "鑒": 7144,
      "鑣": 7145,
      "鑫": 7146,
      "鑰": 7147,
      "鑲": 7148,
      "鑼": 7149,
      "鑽": 7150,
      "鑾": 7151,
      "鑿": 7152,
      "针": 7153,
      "钉": 7154,
      "钊": 7155,
      "钎": 7156,
      "钏": 7157,
      "钒": 7158,
      "钓": 7159,
      "钗": 7160,
      "钙": 7161,
      "钛": 7162,
      "钜": 7163,
      "钝": 7164,
      "钞": 7165,
      "钟": 7166,
      "钠": 7167,
      "钡": 7168,
      "钢": 7169,
      "钣": 7170,
      "钤": 7171,
      "钥": 7172,
      "钦": 7173,
      "钧": 7174,
      "钨": 7175,
      "钩": 7176,
      "钮": 7177,
      "钯": 7178,
      "钰": 7179,
      "钱": 7180,
      "钳": 7181,
      "钴": 7182,
      "钵": 7183,
      "钺": 7184,
      "钻": 7185,
      "钼": 7186,
      "钾": 7187,
      "钿": 7188,
      "铀": 7189,
      "铁": 7190,
      "铂": 7191,
      "铃": 7192,
      "铄": 7193,
      "铅": 7194,
      "铆": 7195,
      "铉": 7196,
      "铎": 7197,
      "铐": 7198,
      "铛": 7199,
      "铜": 7200,
      "铝": 7201,
      "铠": 7202,
      "铡": 7203,
      "铢": 7204,
      "铣": 7205,
      "铤": 7206,
      "铨": 7207,
      "铩": 7208,
      "铬": 7209,
      "铭": 7210,
      "铮": 7211,
      "铰": 7212,
      "铲": 7213,
      "铵": 7214,
      "银": 7215,
      "铸": 7216,
      "铺": 7217,
      "链": 7218,
      "铿": 7219,
      "销": 7220,
      "锁": 7221,
      "锂": 7222,
      "锄": 7223,
      "锅": 7224,
      "锆": 7225,
      "锈": 7226,
      "锉": 7227,
      "锋": 7228,
      "锌": 7229,
      "锏": 7230,
      "锐": 7231,
      "锑": 7232,
      "错": 7233,
      "锚": 7234,
      "锟": 7235,
      "锡": 7236,
      "锢": 7237,
      "锣": 7238,
      "锤": 7239,
      "锥": 7240,
      "锦": 7241,
      "锭": 7242,
      "键": 7243,
      "锯": 7244,
      "锰": 7245,
      "锲": 7246,
      "锵": 7247,
      "锹": 7248,
      "锺": 7249,
      "锻": 7250,
      "镀": 7251,
      "镁": 7252,
      "镂": 7253,
      "镇": 7254,
      "镉": 7255,
      "镌": 7256,
      "镍": 7257,
      "镐": 7258,
      "镑": 7259,
      "镕": 7260,
      "镖": 7261,
      "镗": 7262,
      "镛": 7263,
      "镜": 7264,
      "镣": 7265,
      "镭": 7266,
      "镯": 7267,
      "镰": 7268,
      "镳": 7269,
      "镶": 7270,
      "長": 7271,
      "长": 7272,
      "門": 7273,
      "閃": 7274,
      "閉": 7275,
      "開": 7276,
      "閎": 7277,
      "閏": 7278,
      "閑": 7279,
      "閒": 7280,
      "間": 7281,
      "閔": 7282,
      "閘": 7283,
      "閡": 7284,
      "関": 7285,
      "閣": 7286,
      "閥": 7287,
      "閨": 7288,
      "閩": 7289,
      "閱": 7290,
      "閲": 7291,
      "閹": 7292,
      "閻": 7293,
      "閾": 7294,
      "闆": 7295,
      "闇": 7296,
      "闊": 7297,
      "闌": 7298,
      "闍": 7299,
      "闔": 7300,
      "闕": 7301,
      "闖": 7302,
      "闘": 7303,
      "關": 7304,
      "闡": 7305,
      "闢": 7306,
      "门": 7307,
      "闪": 7308,
      "闫": 7309,
      "闭": 7310,
      "问": 7311,
      "闯": 7312,
      "闰": 7313,
      "闲": 7314,
      "间": 7315,
      "闵": 7316,
      "闷": 7317,
      "闸": 7318,
      "闹": 7319,
      "闺": 7320,
      "闻": 7321,
      "闽": 7322,
      "闾": 7323,
      "阀": 7324,
      "阁": 7325,
      "阂": 7326,
      "阅": 7327,
      "阆": 7328,
      "阇": 7329,
      "阈": 7330,
      "阉": 7331,
      "阎": 7332,
      "阐": 7333,
      "阑": 7334,
      "阔": 7335,
      "阕": 7336,
      "阖": 7337,
      "阙": 7338,
      "阚": 7339,
      "阜": 7340,
      "队": 7341,
      "阡": 7342,
      "阪": 7343,
      "阮": 7344,
      "阱": 7345,
      "防": 7346,
      "阳": 7347,
      "阴": 7348,
      "阵": 7349,
      "阶": 7350,
      "阻": 7351,
      "阿": 7352,
      "陀": 7353,
      "陂": 7354,
      "附": 7355,
      "际": 7356,
      "陆": 7357,
      "陇": 7358,
      "陈": 7359,
      "陋": 7360,
      "陌": 7361,
      "降": 7362,
      "限": 7363,
      "陕": 7364,
      "陛": 7365,
      "陝": 7366,
      "陞": 7367,
      "陟": 7368,
      "陡": 7369,
      "院": 7370,
      "陣": 7371,
      "除": 7372,
      "陨": 7373,
      "险": 7374,
      "陪": 7375,
      "陰": 7376,
      "陲": 7377,
      "陳": 7378,
      "陵": 7379,
      "陶": 7380,
      "陷": 7381,
      "陸": 7382,
      "険": 7383,
      "陽": 7384,
      "隅": 7385,
      "隆": 7386,
      "隈": 7387,
      "隊": 7388,
      "隋": 7389,
      "隍": 7390,
      "階": 7391,
      "随": 7392,
      "隐": 7393,
      "隔": 7394,
      "隕": 7395,
      "隘": 7396,
      "隙": 7397,
      "際": 7398,
      "障": 7399,
      "隠": 7400,
      "隣": 7401,
      "隧": 7402,
      "隨": 7403,
      "險": 7404,
      "隱": 7405,
      "隴": 7406,
      "隶": 7407,
      "隸": 7408,
      "隻": 7409,
      "隼": 7410,
      "隽": 7411,
      "难": 7412,
      "雀": 7413,
      "雁": 7414,
      "雄": 7415,
      "雅": 7416,
      "集": 7417,
      "雇": 7418,
      "雉": 7419,
      "雋": 7420,
      "雌": 7421,
      "雍": 7422,
      "雎": 7423,
      "雏": 7424,
      "雑": 7425,
      "雒": 7426,
      "雕": 7427,
      "雖": 7428,
      "雙": 7429,
      "雛": 7430,
      "雜": 7431,
      "雞": 7432,
      "離": 7433,
      "難": 7434,
      "雨": 7435,
      "雪": 7436,
      "雯": 7437,
      "雰": 7438,
      "雲": 7439,
      "雳": 7440,
      "零": 7441,
      "雷": 7442,
      "雹": 7443,
      "電": 7444,
      "雾": 7445,
      "需": 7446,
      "霁": 7447,
      "霄": 7448,
      "霆": 7449,
      "震": 7450,
      "霈": 7451,
      "霉": 7452,
      "霊": 7453,
      "霍": 7454,
      "霎": 7455,
      "霏": 7456,
      "霑": 7457,
      "霓": 7458,
      "霖": 7459,
      "霜": 7460,
      "霞": 7461,
      "霧": 7462,
      "霭": 7463,
      "霰": 7464,
      "露": 7465,
      "霸": 7466,
      "霹": 7467,
      "霽": 7468,
      "霾": 7469,
      "靂": 7470,
      "靄": 7471,
      "靈": 7472,
      "青": 7473,
      "靓": 7474,
      "靖": 7475,
      "静": 7476,
      "靚": 7477,
      "靛": 7478,
      "靜": 7479,
      "非": 7480,
      "靠": 7481,
      "靡": 7482,
      "面": 7483,
      "靥": 7484,
      "靦": 7485,
      "革": 7486,
      "靳": 7487,
      "靴": 7488,
      "靶": 7489,
      "靼": 7490,
      "鞅": 7491,
      "鞋": 7492,
      "鞍": 7493,
      "鞏": 7494,
      "鞑": 7495,
      "鞘": 7496,
      "鞠": 7497,
      "鞣": 7498,
      "鞦": 7499,
      "鞭": 7500,
      "韆": 7501,
      "韋": 7502,
      "韌": 7503,
      "韓": 7504,
      "韜": 7505,
      "韦": 7506,
      "韧": 7507,
      "韩": 7508,
      "韬": 7509,
      "韭": 7510,
      "音": 7511,
      "韵": 7512,
      "韶": 7513,
      "韻": 7514,
      "響": 7515,
      "頁": 7516,
      "頂": 7517,
      "頃": 7518,
      "項": 7519,
      "順": 7520,
      "須": 7521,
      "頌": 7522,
      "預": 7523,
      "頑": 7524,
      "頒": 7525,
      "頓": 7526,
      "頗": 7527,
      "領": 7528,
      "頜": 7529,
      "頡": 7530,
      "頤": 7531,
      "頫": 7532,
      "頭": 7533,
      "頰": 7534,
      "頷": 7535,
      "頸": 7536,
      "頹": 7537,
      "頻": 7538,
      "頼": 7539,
      "顆": 7540,
      "題": 7541,
      "額": 7542,
      "顎": 7543,
      "顏": 7544,
      "顔": 7545,
      "願": 7546,
      "顛": 7547,
      "類": 7548,
      "顧": 7549,
      "顫": 7550,
      "顯": 7551,
      "顱": 7552,
      "顴": 7553,
      "页": 7554,
      "顶": 7555,
      "顷": 7556,
      "项": 7557,
      "顺": 7558,
      "须": 7559,
      "顼": 7560,
      "顽": 7561,
      "顾": 7562,
      "顿": 7563,
      "颁": 7564,
      "颂": 7565,
      "预": 7566,
      "颅": 7567,
      "领": 7568,
      "颇": 7569,
      "颈": 7570,
      "颉": 7571,
      "颊": 7572,
      "颌": 7573,
      "颍": 7574,
      "颐": 7575,
      "频": 7576,
      "颓": 7577,
      "颔": 7578,
      "颖": 7579,
      "颗": 7580,
      "题": 7581,
      "颚": 7582,
      "颛": 7583,
      "颜": 7584,
      "额": 7585,
      "颞": 7586,
      "颠": 7587,
      "颡": 7588,
      "颢": 7589,
      "颤": 7590,
      "颦": 7591,
      "颧": 7592,
      "風": 7593,
      "颯": 7594,
      "颱": 7595,
      "颳": 7596,
      "颶": 7597,
      "颼": 7598,
      "飄": 7599,
      "飆": 7600,
      "风": 7601,
      "飒": 7602,
      "飓": 7603,
      "飕": 7604,
      "飘": 7605,
      "飙": 7606,
      "飚": 7607,
      "飛": 7608,
      "飞": 7609,
      "食": 7610,
      "飢": 7611,
      "飨": 7612,
      "飩": 7613,
      "飪": 7614,
      "飯": 7615,
      "飲": 7616,
      "飼": 7617,
      "飽": 7618,
      "飾": 7619,
      "餃": 7620,
      "餅": 7621,
      "餉": 7622,
      "養": 7623,
      "餌": 7624,
      "餐": 7625,
      "餒": 7626,
      "餓": 7627,
      "餘": 7628,
      "餚": 7629,
      "餛": 7630,
      "餞": 7631,
      "餡": 7632,
      "館": 7633,
      "餮": 7634,
      "餵": 7635,
      "餾": 7636,
      "饅": 7637,
      "饈": 7638,
      "饋": 7639,
      "饌": 7640,
      "饍": 7641,
      "饑": 7642,
      "饒": 7643,
      "饕": 7644,
      "饗": 7645,
      "饞": 7646,
      "饥": 7647,
      "饨": 7648,
      "饪": 7649,
      "饬": 7650,
      "饭": 7651,
      "饮": 7652,
      "饯": 7653,
      "饰": 7654,
      "饱": 7655,
      "饲": 7656,
      "饴": 7657,
      "饵": 7658,
      "饶": 7659,
      "饷": 7660,
      "饺": 7661,
      "饼": 7662,
      "饽": 7663,
      "饿": 7664,
      "馀": 7665,
      "馁": 7666,
      "馄": 7667,
      "馅": 7668,
      "馆": 7669,
      "馈": 7670,
      "馋": 7671,
      "馍": 7672,
      "馏": 7673,
      "馒": 7674,
      "馔": 7675,
      "首": 7676,
      "馗": 7677,
      "香": 7678,
      "馥": 7679,
      "馨": 7680,
      "馬": 7681,
      "馭": 7682,
      "馮": 7683,
      "馳": 7684,
      "馴": 7685,
      "駁": 7686,
      "駄": 7687,
      "駅": 7688,
      "駆": 7689,
      "駐": 7690,
      "駒": 7691,
      "駕": 7692,
      "駛": 7693,
      "駝": 7694,
      "駭": 7695,
      "駱": 7696,
      "駿": 7697,
      "騁": 7698,
      "騎": 7699,
      "騏": 7700,
      "験": 7701,
      "騙": 7702,
      "騨": 7703,
      "騰": 7704,
      "騷": 7705,
      "驀": 7706,
      "驅": 7707,
      "驊": 7708,
      "驍": 7709,
      "驒": 7710,
      "驕": 7711,
      "驗": 7712,
      "驚": 7713,
      "驛": 7714,
      "驟": 7715,
      "驢": 7716,
      "驥": 7717,
      "马": 7718,
      "驭": 7719,
      "驮": 7720,
      "驯": 7721,
      "驰": 7722,
      "驱": 7723,
      "驳": 7724,
      "驴": 7725,
      "驶": 7726,
      "驷": 7727,
      "驸": 7728,
      "驹": 7729,
      "驻": 7730,
      "驼": 7731,
      "驾": 7732,
      "驿": 7733,
      "骁": 7734,
      "骂": 7735,
      "骄": 7736,
      "骅": 7737,
      "骆": 7738,
      "骇": 7739,
      "骈": 7740,
      "骊": 7741,
      "骋": 7742,
      "验": 7743,
      "骏": 7744,
      "骐": 7745,
      "骑": 7746,
      "骗": 7747,
      "骚": 7748,
      "骛": 7749,
      "骜": 7750,
      "骞": 7751,
      "骠": 7752,
      "骡": 7753,
      "骤": 7754,
      "骥": 7755,
      "骧": 7756,
      "骨": 7757,
      "骯": 7758,
      "骰": 7759,
      "骶": 7760,
      "骷": 7761,
      "骸": 7762,
      "骼": 7763,
      "髂": 7764,
      "髅": 7765,
      "髋": 7766,
      "髏": 7767,
      "髒": 7768,
      "髓": 7769,
      "體": 7770,
      "髖": 7771,
      "高": 7772,
      "髦": 7773,
      "髪": 7774,
      "髮": 7775,
      "髯": 7776,
      "髻": 7777,
      "鬃": 7778,
      "鬆": 7779,
      "鬍": 7780,
      "鬓": 7781,
      "鬚": 7782,
      "鬟": 7783,
      "鬢": 7784,
      "鬣": 7785,
      "鬥": 7786,
      "鬧": 7787,
      "鬱": 7788,
      "鬼": 7789,
      "魁": 7790,
      "魂": 7791,
      "魄": 7792,
      "魅": 7793,
      "魇": 7794,
      "魍": 7795,
      "魏": 7796,
      "魔": 7797,
      "魘": 7798,
      "魚": 7799,
      "魯": 7800,
      "魷": 7801,
      "鮑": 7802,
      "鮨": 7803,
      "鮪": 7804,
      "鮭": 7805,
      "鮮": 7806,
      "鯉": 7807,
      "鯊": 7808,
      "鯖": 7809,
      "鯛": 7810,
      "鯨": 7811,
      "鯰": 7812,
      "鯽": 7813,
      "鰍": 7814,
      "鰓": 7815,
      "鰭": 7816,
      "鰲": 7817,
      "鰻": 7818,
      "鰾": 7819,
      "鱈": 7820,
      "鱉": 7821,
      "鱔": 7822,
      "鱗": 7823,
      "鱷": 7824,
      "鱸": 7825,
      "鱼": 7826,
      "鱿": 7827,
      "鲁": 7828,
      "鲈": 7829,
      "鲍": 7830,
      "鲑": 7831,
      "鲛": 7832,
      "鲜": 7833,
      "鲟": 7834,
      "鲢": 7835,
      "鲤": 7836,
      "鲨": 7837,
      "鲫": 7838,
      "鲱": 7839,
      "鲲": 7840,
      "鲶": 7841,
      "鲷": 7842,
      "鲸": 7843,
      "鳃": 7844,
      "鳄": 7845,
      "鳅": 7846,
      "鳌": 7847,
      "鳍": 7848,
      "鳕": 7849,
      "鳖": 7850,
      "鳗": 7851,
      "鳝": 7852,
      "鳞": 7853,
      "鳥": 7854,
      "鳩": 7855,
      "鳳": 7856,
      "鳴": 7857,
      "鳶": 7858,
      "鴉": 7859,
      "鴕": 7860,
      "鴛": 7861,
      "鴦": 7862,
      "鴨": 7863,
      "鴻": 7864,
      "鴿": 7865,
      "鵑": 7866,
      "鵜": 7867,
      "鵝": 7868,
      "鵡": 7869,
      "鵬": 7870,
      "鵰": 7871,
      "鵲": 7872,
      "鶘": 7873,
      "鶩": 7874,
      "鶯": 7875,
      "鶴": 7876,
      "鷗": 7877,
      "鷲": 7878,
      "鷹": 7879,
      "鷺": 7880,
      "鸚": 7881,
      "鸞": 7882,
      "鸟": 7883,
      "鸠": 7884,
      "鸡": 7885,
      "鸢": 7886,
      "鸣": 7887,
      "鸥": 7888,
      "鸦": 7889,
      "鸨": 7890,
      "鸪": 7891,
      "鸭": 7892,
      "鸯": 7893,
      "鸳": 7894,
      "鸵": 7895,
      "鸽": 7896,
      "鸾": 7897,
      "鸿": 7898,
      "鹂": 7899,
      "鹃": 7900,
      "鹄": 7901,
      "鹅": 7902,
      "鹈": 7903,
      "鹉": 7904,
      "鹊": 7905,
      "鹌": 7906,
      "鹏": 7907,
      "鹑": 7908,
      "鹕": 7909,
      "鹘": 7910,
      "鹜": 7911,
      "鹞": 7912,
      "鹤": 7913,
      "鹦": 7914,
      "鹧": 7915,
      "鹫": 7916,
      "鹭": 7917,
      "鹰": 7918,
      "鹳": 7919,
      "鹵": 7920,
      "鹹": 7921,
      "鹼": 7922,
      "鹽": 7923,
      "鹿": 7924,
      "麂": 7925,
      "麋": 7926,
      "麒": 7927,
      "麓": 7928,
      "麗": 7929,
      "麝": 7930,
      "麟": 7931,
      "麥": 7932,
      "麦": 7933,
      "麩": 7934,
      "麴": 7935,
      "麵": 7936,
      "麸": 7937,
      "麺": 7938,
      "麻": 7939,
      "麼": 7940,
      "麽": 7941,
      "麾": 7942,
      "黃": 7943,
      "黄": 7944,
      "黍": 7945,
      "黎": 7946,
      "黏": 7947,
      "黑": 7948,
      "黒": 7949,
      "黔": 7950,
      "默": 7951,
      "黛": 7952,
      "黜": 7953,
      "黝": 7954,
      "點": 7955,
      "黠": 7956,
      "黨": 7957,
      "黯": 7958,
      "黴": 7959,
      "鼋": 7960,
      "鼎": 7961,
      "鼐": 7962,
      "鼓": 7963,
      "鼠": 7964,
      "鼬": 7965,
      "鼹": 7966,
      "鼻": 7967,
      "鼾": 7968,
      "齁": 7969,
      "齊": 7970,
      "齋": 7971,
      "齐": 7972,
      "齒": 7973,
      "齡": 7974,
      "齢": 7975,
      "齣": 7976,
      "齦": 7977,
      "齿": 7978,
      "龄": 7979,
      "龅": 7980,
      "龈": 7981,
      "龊": 7982,
      "龋": 7983,
      "龌": 7984,
      "龍": 7985,
      "龐": 7986,
      "龔": 7987,
      "龕": 7988,
      "龙": 7989,
      "龚": 7990,
      "龛": 7991,
      "龜": 7992,
      "龟": 7993,
      "︰": 7994,
      "︱": 7995,
      "︶": 7996,
      "︿": 7997,
      "﹁": 7998,
      "﹂": 7999,
      "﹍": 8000,
      "﹏": 8001,
      "﹐": 8002,
      "﹑": 8003,
      "﹒": 8004,
      "﹔": 8005,
      "﹕": 8006,
      "﹖": 8007,
      "﹗": 8008,
      "﹙": 8009,
      "﹚": 8010,
      "﹝": 8011,
      "﹞": 8012,
      "﹡": 8013,
      "﹣": 8014,
      "！": 8015,
      "＂": 8016,
      "＃": 8017,
      "＄": 8018,
      "％": 8019,
      "＆": 8020,
      "＇": 8021,
      "（": 8022,
      "）": 8023,
      "＊": 8024,
      "＋": 8025,
      "，": 8026,
      "－": 8027,
      "．": 8028,
      "／": 8029,
      "０": 8030,
      "１": 8031,
      "２": 8032,
      "３": 8033,
      "４": 8034,
      "５": 8035,
      "６": 8036,
      "７": 8037,
      "８": 8038,
      "９": 8039,
      "：": 8040,
      "；": 8041,
      "＜": 8042,
      "＝": 8043,
      "＞": 8044,
      "？": 8045,
      "＠": 8046,
      "［": 8047,
      "＼": 8048,
      "］": 8049,
      "＾": 8050,
      "＿": 8051,
      "｀": 8052,
      "ａ": 8053,
      "ｂ": 8054,
      "ｃ": 8055,
      "ｄ": 8056,
      "ｅ": 8057,
      "ｆ": 8058,
      "ｇ": 8059,
      "ｈ": 8060,
      "ｉ": 8061,
      "ｊ": 8062,
      "ｋ": 8063,
      "ｌ": 8064,
      "ｍ": 8065,
      "ｎ": 8066,
      "ｏ": 8067,
      "ｐ": 8068,
      "ｑ": 8069,
      "ｒ": 8070,
      "ｓ": 8071,
      "ｔ": 8072,
      "ｕ": 8073,
      "ｖ": 8074,
      "ｗ": 8075,
      "ｘ": 8076,
      "ｙ": 8077,
      "ｚ": 8078,
      "｛": 8079,
      "｜": 8080,
      "｝": 8081,
      "～": 8082,
      "｡": 8083,
      "｢": 8084,
      "｣": 8085,
      "､": 8086,
      "･": 8087,
      "ｯ": 8088,
      "ｰ": 8089,
      "ｲ": 8090,
      "ｸ": 8091,
      "ｼ": 8092,
      "ｽ": 8093,
      "ﾄ": 8094,
      "ﾉ": 8095,
      "ﾌ": 8096,
      "ﾗ": 8097,
      "ﾙ": 8098,
      "ﾝ": 8099,
      "ﾞ": 8100,
      "ﾟ": 8101,
      "￣": 8102,
      "￥": 8103,
      "👍": 8104,
      "🔥": 8105,
      "😂": 8106,
      "😎": 8107,
      "...": 8108,
      "yam": 8109,
      "10": 8110,
      "2017": 8111,
      "12": 8112,
      "11": 8113,
      "2016": 8114,
      "20": 8115,
      "30": 8116,
      "15": 8117,
      "06": 8118,
      "lofter": 8119,
      "##s": 8120,
      "2015": 8121,
      "by": 8122,
      "16": 8123,
      "14": 8124,
      "18": 8125,
      "13": 8126,
      "24": 8127,
      "17": 8128,
      "2014": 8129,
      "21": 8130,
      "##0": 8131,
      "22": 8132,
      "19": 8133,
      "25": 8134,
      "23": 8135,
      "com": 8136,
      "100": 8137,
      "00": 8138,
      "05": 8139,
      "2013": 8140,
      "##a": 8141,
      "03": 8142,
      "09": 8143,
      "08": 8144,
      "28": 8145,
      "##2": 8146,
      "50": 8147,
      "01": 8148,
      "04": 8149,
      "##1": 8150,
      "27": 8151,
      "02": 8152,
      "2012": 8153,
      "##3": 8154,
      "26": 8155,
      "##e": 8156,
      "07": 8157,
      "##8": 8158,
      "##5": 8159,
      "##6": 8160,
      "##4": 8161,
      "##9": 8162,
      "##7": 8163,
      "29": 8164,
      "2011": 8165,
      "40": 8166,
      "##t": 8167,
      "2010": 8168,
      "##o": 8169,
      "##d": 8170,
      "##i": 8171,
      "2009": 8172,
      "##n": 8173,
      "app": 8174,
      "www": 8175,
      "the": 8176,
      "##m": 8177,
      "31": 8178,
      "##c": 8179,
      "##l": 8180,
      "##y": 8181,
      "##r": 8182,
      "##g": 8183,
      "2008": 8184,
      "60": 8185,
      "http": 8186,
      "200": 8187,
      "qq": 8188,
      "##p": 8189,
      "80": 8190,
      "##f": 8191,
      "google": 8192,
      "pixnet": 8193,
      "90": 8194,
      "cookies": 8195,
      "tripadvisor": 8196,
      "500": 8197,
      "##er": 8198,
      "##k": 8199,
      "35": 8200,
      "##h": 8201,
      "facebook": 8202,
      "2007": 8203,
      "2000": 8204,
      "70": 8205,
      "##b": 8206,
      "of": 8207,
      "##x": 8208,
      "##u": 8209,
      "45": 8210,
      "300": 8211,
      "iphone": 8212,
      "32": 8213,
      "1000": 8214,
      "2006": 8215,
      "48": 8216,
      "ip": 8217,
      "36": 8218,
      "in": 8219,
      "38": 8220,
      "3d": 8221,
      "##w": 8222,
      "##ing": 8223,
      "55": 8224,
      "ctrip": 8225,
      "##on": 8226,
      "##v": 8227,
      "33": 8228,
      "##の": 8229,
      "to": 8230,
      "34": 8231,
      "400": 8232,
      "id": 8233,
      "2005": 8234,
      "it": 8235,
      "37": 8236,
      "windows": 8237,
      "llc": 8238,
      "top": 8239,
      "99": 8240,
      "42": 8241,
      "39": 8242,
      "000": 8243,
      "led": 8244,
      "at": 8245,
      "##an": 8246,
      "41": 8247,
      "51": 8248,
      "52": 8249,
      "46": 8250,
      "49": 8251,
      "43": 8252,
      "53": 8253,
      "44": 8254,
      "##z": 8255,
      "android": 8256,
      "58": 8257,
      "and": 8258,
      "59": 8259,
      "2004": 8260,
      "56": 8261,
      "vr": 8262,
      "##か": 8263,
      "5000": 8264,
      "2003": 8265,
      "47": 8266,
      "blogthis": 8267,
      "twitter": 8268,
      "54": 8269,
      "##le": 8270,
      "150": 8271,
      "ok": 8272,
      "2018": 8273,
      "57": 8274,
      "75": 8275,
      "cn": 8276,
      "no": 8277,
      "ios": 8278,
      "##in": 8279,
      "##mm": 8280,
      "##00": 8281,
      "800": 8282,
      "on": 8283,
      "te": 8284,
      "3000": 8285,
      "65": 8286,
      "2001": 8287,
      "360": 8288,
      "95": 8289,
      "ig": 8290,
      "lv": 8291,
      "120": 8292,
      "##ng": 8293,
      "##を": 8294,
      "##us": 8295,
      "##に": 8296,
      "pc": 8297,
      "てす": 8298,
      "──": 8299,
      "600": 8300,
      "##te": 8301,
      "85": 8302,
      "2002": 8303,
      "88": 8304,
      "##ed": 8305,
      "html": 8306,
      "ncc": 8307,
      "wifi": 8308,
      "email": 8309,
      "64": 8310,
      "blog": 8311,
      "is": 8312,
      "##10": 8313,
      "##て": 8314,
      "mail": 8315,
      "online": 8316,
      "##al": 8317,
      "dvd": 8318,
      "##ic": 8319,
      "studio": 8320,
      "##は": 8321,
      "##℃": 8322,
      "##ia": 8323,
      "##と": 8324,
      "line": 8325,
      "vip": 8326,
      "72": 8327,
      "##q": 8328,
      "98": 8329,
      "##ce": 8330,
      "##en": 8331,
      "for": 8332,
      "##is": 8333,
      "##ra": 8334,
      "##es": 8335,
      "##j": 8336,
      "usb": 8337,
      "net": 8338,
      "cp": 8339,
      "1999": 8340,
      "asia": 8341,
      "4g": 8342,
      "##cm": 8343,
      "diy": 8344,
      "new": 8345,
      "3c": 8346,
      "##お": 8347,
      "ta": 8348,
      "66": 8349,
      "language": 8350,
      "vs": 8351,
      "apple": 8352,
      "tw": 8353,
      "86": 8354,
      "web": 8355,
      "##ne": 8356,
      "ipad": 8357,
      "62": 8358,
      "you": 8359,
      "##re": 8360,
      "101": 8361,
      "68": 8362,
      "##tion": 8363,
      "ps": 8364,
      "de": 8365,
      "bt": 8366,
      "pony": 8367,
      "atm": 8368,
      "##2017": 8369,
      "1998": 8370,
      "67": 8371,
      "##ch": 8372,
      "ceo": 8373,
      "##or": 8374,
      "go": 8375,
      "##na": 8376,
      "av": 8377,
      "pro": 8378,
      "cafe": 8379,
      "96": 8380,
      "pinterest": 8381,
      "97": 8382,
      "63": 8383,
      "pixstyleme3c": 8384,
      "##ta": 8385,
      "more": 8386,
      "said": 8387,
      "##2016": 8388,
      "1997": 8389,
      "mp3": 8390,
      "700": 8391,
      "##ll": 8392,
      "nba": 8393,
      "jun": 8394,
      "##20": 8395,
      "92": 8396,
      "tv": 8397,
      "1995": 8398,
      "pm": 8399,
      "61": 8400,
      "76": 8401,
      "nbsp": 8402,
      "250": 8403,
      "##ie": 8404,
      "linux": 8405,
      "##ma": 8406,
      "cd": 8407,
      "110": 8408,
      "hd": 8409,
      "##17": 8410,
      "78": 8411,
      "##ion": 8412,
      "77": 8413,
      "6000": 8414,
      "am": 8415,
      "##th": 8416,
      "##st": 8417,
      "94": 8418,
      "##se": 8419,
      "##et": 8420,
      "69": 8421,
      "180": 8422,
      "gdp": 8423,
      "my": 8424,
      "105": 8425,
      "81": 8426,
      "abc": 8427,
      "89": 8428,
      "flash": 8429,
      "79": 8430,
      "one": 8431,
      "93": 8432,
      "1990": 8433,
      "1996": 8434,
      "##ck": 8435,
      "gps": 8436,
      "##も": 8437,
      "##ly": 8438,
      "web885": 8439,
      "106": 8440,
      "2020": 8441,
      "91": 8442,
      "##ge": 8443,
      "4000": 8444,
      "1500": 8445,
      "xd": 8446,
      "boss": 8447,
      "isbn": 8448,
      "1994": 8449,
      "org": 8450,
      "##ry": 8451,
      "me": 8452,
      "love": 8453,
      "##11": 8454,
      "0fork": 8455,
      "73": 8456,
      "##12": 8457,
      "3g": 8458,
      "##ter": 8459,
      "##ar": 8460,
      "71": 8461,
      "82": 8462,
      "##la": 8463,
      "hotel": 8464,
      "130": 8465,
      "1970": 8466,
      "pk": 8467,
      "83": 8468,
      "87": 8469,
      "140": 8470,
      "ie": 8471,
      "##os": 8472,
      "##30": 8473,
      "##el": 8474,
      "74": 8475,
      "##50": 8476,
      "seo": 8477,
      "cpu": 8478,
      "##ml": 8479,
      "p2p": 8480,
      "84": 8481,
      "may": 8482,
      "##る": 8483,
      "sun": 8484,
      "tue": 8485,
      "internet": 8486,
      "cc": 8487,
      "posted": 8488,
      "youtube": 8489,
      "##at": 8490,
      "##ン": 8491,
      "##man": 8492,
      "ii": 8493,
      "##ル": 8494,
      "##15": 8495,
      "abs": 8496,
      "nt": 8497,
      "pdf": 8498,
      "yahoo": 8499,
      "ago": 8500,
      "1980": 8501,
      "##it": 8502,
      "news": 8503,
      "mac": 8504,
      "104": 8505,
      "##てす": 8506,
      "##me": 8507,
      "##り": 8508,
      "java": 8509,
      "1992": 8510,
      "spa": 8511,
      "##de": 8512,
      "##nt": 8513,
      "hk": 8514,
      "all": 8515,
      "plus": 8516,
      "la": 8517,
      "1993": 8518,
      "##mb": 8519,
      "##16": 8520,
      "##ve": 8521,
      "west": 8522,
      "##da": 8523,
      "160": 8524,
      "air": 8525,
      "##い": 8526,
      "##ps": 8527,
      "から": 8528,
      "##to": 8529,
      "1989": 8530,
      "logo": 8531,
      "htc": 8532,
      "php": 8533,
      "https": 8534,
      "fi": 8535,
      "momo": 8536,
      "##son": 8537,
      "sat": 8538,
      "##ke": 8539,
      "##80": 8540,
      "ebd": 8541,
      "suv": 8542,
      "wi": 8543,
      "day": 8544,
      "apk": 8545,
      "##88": 8546,
      "##um": 8547,
      "mv": 8548,
      "galaxy": 8549,
      "wiki": 8550,
      "or": 8551,
      "brake": 8552,
      "##ス": 8553,
      "1200": 8554,
      "する": 8555,
      "this": 8556,
      "1991": 8557,
      "mon": 8558,
      "##こ": 8559,
      "❤2017": 8560,
      "po": 8561,
      "##ない": 8562,
      "javascript": 8563,
      "life": 8564,
      "home": 8565,
      "june": 8566,
      "##ss": 8567,
      "system": 8568,
      "900": 8569,
      "##ー": 8570,
      "##０": 8571,
      "pp": 8572,
      "1988": 8573,
      "world": 8574,
      "fb": 8575,
      "4k": 8576,
      "br": 8577,
      "##as": 8578,
      "ic": 8579,
      "ai": 8580,
      "leonardo": 8581,
      "safari": 8582,
      "##60": 8583,
      "live": 8584,
      "free": 8585,
      "xx": 8586,
      "wed": 8587,
      "win7": 8588,
      "kiehl": 8589,
      "##co": 8590,
      "lg": 8591,
      "o2o": 8592,
      "##go": 8593,
      "us": 8594,
      "235": 8595,
      "1949": 8596,
      "mm": 8597,
      "しい": 8598,
      "vfm": 8599,
      "kanye": 8600,
      "##90": 8601,
      "##2015": 8602,
      "##id": 8603,
      "jr": 8604,
      "##ey": 8605,
      "123": 8606,
      "rss": 8607,
      "##sa": 8608,
      "##ro": 8609,
      "##am": 8610,
      "##no": 8611,
      "thu": 8612,
      "fri": 8613,
      "350": 8614,
      "##sh": 8615,
      "##ki": 8616,
      "103": 8617,
      "comments": 8618,
      "name": 8619,
      "##のて": 8620,
      "##pe": 8621,
      "##ine": 8622,
      "max": 8623,
      "1987": 8624,
      "8000": 8625,
      "uber": 8626,
      "##mi": 8627,
      "##ton": 8628,
      "wordpress": 8629,
      "office": 8630,
      "1986": 8631,
      "1985": 8632,
      "##ment": 8633,
      "107": 8634,
      "bd": 8635,
      "win10": 8636,
      "##ld": 8637,
      "##li": 8638,
      "gmail": 8639,
      "bb": 8640,
      "dior": 8641,
      "##rs": 8642,
      "##ri": 8643,
      "##rd": 8644,
      "##ます": 8645,
      "up": 8646,
      "cad": 8647,
      "##®": 8648,
      "dr": 8649,
      "して": 8650,
      "read": 8651,
      "##21": 8652,
      "をお": 8653,
      "##io": 8654,
      "##99": 8655,
      "url": 8656,
      "1984": 8657,
      "pvc": 8658,
      "paypal": 8659,
      "show": 8660,
      "policy": 8661,
      "##40": 8662,
      "##ty": 8663,
      "##18": 8664,
      "with": 8665,
      "##★": 8666,
      "##01": 8667,
      "txt": 8668,
      "102": 8669,
      "##ba": 8670,
      "dna": 8671,
      "from": 8672,
      "post": 8673,
      "mini": 8674,
      "ar": 8675,
      "taiwan": 8676,
      "john": 8677,
      "##ga": 8678,
      "privacy": 8679,
      "agoda": 8680,
      "##13": 8681,
      "##ny": 8682,
      "word": 8683,
      "##24": 8684,
      "##22": 8685,
      "##by": 8686,
      "##ur": 8687,
      "##hz": 8688,
      "1982": 8689,
      "##ang": 8690,
      "265": 8691,
      "cookie": 8692,
      "netscape": 8693,
      "108": 8694,
      "##ka": 8695,
      "##～": 8696,
      "##ad": 8697,
      "house": 8698,
      "share": 8699,
      "note": 8700,
      "ibm": 8701,
      "code": 8702,
      "hello": 8703,
      "nike": 8704,
      "sim": 8705,
      "survey": 8706,
      "##016": 8707,
      "1979": 8708,
      "1950": 8709,
      "wikia": 8710,
      "##32": 8711,
      "##017": 8712,
      "5g": 8713,
      "cbc": 8714,
      "##tor": 8715,
      "##kg": 8716,
      "1983": 8717,
      "##rt": 8718,
      "##14": 8719,
      "campaign": 8720,
      "store": 8721,
      "2500": 8722,
      "os": 8723,
      "##ct": 8724,
      "##ts": 8725,
      "##°": 8726,
      "170": 8727,
      "api": 8728,
      "##ns": 8729,
      "365": 8730,
      "excel": 8731,
      "##な": 8732,
      "##ao": 8733,
      "##ら": 8734,
      "##し": 8735,
      "～～": 8736,
      "##nd": 8737,
      "university": 8738,
      "163": 8739,
      "には": 8740,
      "518": 8741,
      "##70": 8742,
      "##ya": 8743,
      "##il": 8744,
      "##25": 8745,
      "pierre": 8746,
      "ipo": 8747,
      "0020": 8748,
      "897": 8749,
      "##23": 8750,
      "hotels": 8751,
      "##ian": 8752,
      "のお": 8753,
      "125": 8754,
      "years": 8755,
      "6606": 8756,
      "##ers": 8757,
      "##26": 8758,
      "high": 8759,
      "##day": 8760,
      "time": 8761,
      "##ay": 8762,
      "bug": 8763,
      "##line": 8764,
      "##く": 8765,
      "##す": 8766,
      "##be": 8767,
      "xp": 8768,
      "talk2yam": 8769,
      "yamservice": 8770,
      "10000": 8771,
      "coco": 8772,
      "##dy": 8773,
      "sony": 8774,
      "##ies": 8775,
      "1978": 8776,
      "microsoft": 8777,
      "david": 8778,
      "people": 8779,
      "##ha": 8780,
      "1960": 8781,
      "instagram": 8782,
      "intel": 8783,
      "その": 8784,
      "##ot": 8785,
      "iso": 8786,
      "1981": 8787,
      "##va": 8788,
      "115": 8789,
      "##mo": 8790,
      "##land": 8791,
      "xxx": 8792,
      "man": 8793,
      "co": 8794,
      "ltxsw": 8795,
      "##ation": 8796,
      "baby": 8797,
      "220": 8798,
      "##pa": 8799,
      "##ol": 8800,
      "1945": 8801,
      "7000": 8802,
      "tag": 8803,
      "450": 8804,
      "##ue": 8805,
      "msn": 8806,
      "##31": 8807,
      "oppo": 8808,
      "##ト": 8809,
      "##ca": 8810,
      "control": 8811,
      "##om": 8812,
      "st": 8813,
      "chrome": 8814,
      "##ure": 8815,
      "##ん": 8816,
      "be": 8817,
      "##き": 8818,
      "lol": 8819,
      "##19": 8820,
      "した": 8821,
      "##bo": 8822,
      "240": 8823,
      "lady": 8824,
      "##100": 8825,
      "##way": 8826,
      "##から": 8827,
      "4600": 8828,
      "##ko": 8829,
      "##do": 8830,
      "##un": 8831,
      "4s": 8832,
      "corporation": 8833,
      "168": 8834,
      "##ni": 8835,
      "herme": 8836,
      "##28": 8837,
      "ｃｐ": 8838,
      "978": 8839,
      "##up": 8840,
      "##06": 8841,
      "ui": 8842,
      "##ds": 8843,
      "ppt": 8844,
      "admin": 8845,
      "three": 8846,
      "します": 8847,
      "bbc": 8848,
      "re": 8849,
      "128": 8850,
      "##48": 8851,
      "ca": 8852,
      "##015": 8853,
      "##35": 8854,
      "hp": 8855,
      "##ee": 8856,
      "tpp": 8857,
      "##た": 8858,
      "##ive": 8859,
      "××": 8860,
      "root": 8861,
      "##cc": 8862,
      "##ました": 8863,
      "##ble": 8864,
      "##ity": 8865,
      "adobe": 8866,
      "park": 8867,
      "114": 8868,
      "et": 8869,
      "oled": 8870,
      "city": 8871,
      "##ex": 8872,
      "##ler": 8873,
      "##ap": 8874,
      "china": 8875,
      "##book": 8876,
      "20000": 8877,
      "view": 8878,
      "##ice": 8879,
      "global": 8880,
      "##km": 8881,
      "your": 8882,
      "hong": 8883,
      "##mg": 8884,
      "out": 8885,
      "##ms": 8886,
      "ng": 8887,
      "ebay": 8888,
      "##29": 8889,
      "menu": 8890,
      "ubuntu": 8891,
      "##cy": 8892,
      "rom": 8893,
      "##view": 8894,
      "open": 8895,
      "ktv": 8896,
      "do": 8897,
      "server": 8898,
      "##lo": 8899,
      "if": 8900,
      "english": 8901,
      "##ね": 8902,
      "##５": 8903,
      "##oo": 8904,
      "1600": 8905,
      "##02": 8906,
      "step1": 8907,
      "kong": 8908,
      "club": 8909,
      "135": 8910,
      "july": 8911,
      "inc": 8912,
      "1976": 8913,
      "mr": 8914,
      "hi": 8915,
      "##net": 8916,
      "touch": 8917,
      "##ls": 8918,
      "##ii": 8919,
      "michael": 8920,
      "lcd": 8921,
      "##05": 8922,
      "##33": 8923,
      "phone": 8924,
      "james": 8925,
      "step2": 8926,
      "1300": 8927,
      "ios9": 8928,
      "##box": 8929,
      "dc": 8930,
      "##２": 8931,
      "##ley": 8932,
      "samsung": 8933,
      "111": 8934,
      "280": 8935,
      "pokemon": 8936,
      "css": 8937,
      "##ent": 8938,
      "##les": 8939,
      "いいえ": 8940,
      "##１": 8941,
      "s8": 8942,
      "atom": 8943,
      "play": 8944,
      "bmw": 8945,
      "##said": 8946,
      "sa": 8947,
      "etf": 8948,
      "ctrl": 8949,
      "♥yoyo♥": 8950,
      "##55": 8951,
      "2025": 8952,
      "##2014": 8953,
      "##66": 8954,
      "adidas": 8955,
      "amazon": 8956,
      "1958": 8957,
      "##ber": 8958,
      "##ner": 8959,
      "visa": 8960,
      "##77": 8961,
      "##der": 8962,
      "1800": 8963,
      "connectivity": 8964,
      "##hi": 8965,
      "firefox": 8966,
      "109": 8967,
      "118": 8968,
      "hr": 8969,
      "so": 8970,
      "style": 8971,
      "mark": 8972,
      "pop": 8973,
      "ol": 8974,
      "skip": 8975,
      "1975": 8976,
      "as": 8977,
      "##27": 8978,
      "##ir": 8979,
      "##61": 8980,
      "190": 8981,
      "mba": 8982,
      "##う": 8983,
      "##ai": 8984,
      "le": 8985,
      "##ver": 8986,
      "1900": 8987,
      "cafe2017": 8988,
      "lte": 8989,
      "super": 8990,
      "113": 8991,
      "129": 8992,
      "##ron": 8993,
      "amd": 8994,
      "like": 8995,
      "##☆": 8996,
      "are": 8997,
      "##ster": 8998,
      "we": 8999,
      "##sk": 9000,
      "paul": 9001,
      "data": 9002,
      "international": 9003,
      "##ft": 9004,
      "longchamp": 9005,
      "ssd": 9006,
      "good": 9007,
      "##ート": 9008,
      "##ti": 9009,
      "reply": 9010,
      "##my": 9011,
      "↓↓↓": 9012,
      "apr": 9013,
      "star": 9014,
      "##ker": 9015,
      "source": 9016,
      "136": 9017,
      "js": 9018,
      "112": 9019,
      "get": 9020,
      "force": 9021,
      "photo": 9022,
      "##one": 9023,
      "126": 9024,
      "##2013": 9025,
      "##ow": 9026,
      "link": 9027,
      "bbs": 9028,
      "1972": 9029,
      "goods": 9030,
      "##lin": 9031,
      "python": 9032,
      "119": 9033,
      "##ip": 9034,
      "game": 9035,
      "##ics": 9036,
      "##ません": 9037,
      "blue": 9038,
      "##●": 9039,
      "520": 9040,
      "##45": 9041,
      "page": 9042,
      "itunes": 9043,
      "##03": 9044,
      "1955": 9045,
      "260": 9046,
      "1968": 9047,
      "gt": 9048,
      "gif": 9049,
      "618": 9050,
      "##ff": 9051,
      "##47": 9052,
      "group": 9053,
      "くたさい": 9054,
      "about": 9055,
      "bar": 9056,
      "ganji": 9057,
      "##nce": 9058,
      "music": 9059,
      "lee": 9060,
      "not": 9061,
      "1977": 9062,
      "1971": 9063,
      "1973": 9064,
      "##per": 9065,
      "an": 9066,
      "faq": 9067,
      "comment": 9068,
      "##って": 9069,
      "days": 9070,
      "##ock": 9071,
      "116": 9072,
      "##bs": 9073,
      "1974": 9074,
      "1969": 9075,
      "v1": 9076,
      "player": 9077,
      "1956": 9078,
      "xbox": 9079,
      "sql": 9080,
      "fm": 9081,
      "f1": 9082,
      "139": 9083,
      "##ah": 9084,
      "210": 9085,
      "##lv": 9086,
      "##mp": 9087,
      "##000": 9088,
      "melody": 9089,
      "1957": 9090,
      "##３": 9091,
      "550": 9092,
      "17life": 9093,
      "199": 9094,
      "1966": 9095,
      "xml": 9096,
      "market": 9097,
      "##au": 9098,
      "##71": 9099,
      "999": 9100,
      "##04": 9101,
      "what": 9102,
      "gl": 9103,
      "##95": 9104,
      "##age": 9105,
      "tips": 9106,
      "##68": 9107,
      "book": 9108,
      "##ting": 9109,
      "mysql": 9110,
      "can": 9111,
      "1959": 9112,
      "230": 9113,
      "##ung": 9114,
      "wonderland": 9115,
      "watch": 9116,
      "10℃": 9117,
      "##ction": 9118,
      "9000": 9119,
      "mar": 9120,
      "mobile": 9121,
      "1946": 9122,
      "1962": 9123,
      "article": 9124,
      "##db": 9125,
      "part": 9126,
      "▲top": 9127,
      "party": 9128,
      "って": 9129,
      "1967": 9130,
      "1964": 9131,
      "1948": 9132,
      "##07": 9133,
      "##ore": 9134,
      "##op": 9135,
      "この": 9136,
      "dj": 9137,
      "##78": 9138,
      "##38": 9139,
      "010": 9140,
      "main": 9141,
      "225": 9142,
      "1965": 9143,
      "##ong": 9144,
      "art": 9145,
      "320": 9146,
      "ad": 9147,
      "134": 9148,
      "020": 9149,
      "##73": 9150,
      "117": 9151,
      "pm2": 9152,
      "japan": 9153,
      "228": 9154,
      "##08": 9155,
      "ts": 9156,
      "1963": 9157,
      "##ica": 9158,
      "der": 9159,
      "sm": 9160,
      "##36": 9161,
      "2019": 9162,
      "##wa": 9163,
      "ct": 9164,
      "##７": 9165,
      "##や": 9166,
      "##64": 9167,
      "1937": 9168,
      "homemesh": 9169,
      "search": 9170,
      "##85": 9171,
      "##れは": 9172,
      "##tv": 9173,
      "##di": 9174,
      "macbook": 9175,
      "##９": 9176,
      "##くたさい": 9177,
      "service": 9178,
      "##♥": 9179,
      "type": 9180,
      "った": 9181,
      "750": 9182,
      "##ier": 9183,
      "##si": 9184,
      "##75": 9185,
      "##います": 9186,
      "##ok": 9187,
      "best": 9188,
      "##ット": 9189,
      "goris": 9190,
      "lock": 9191,
      "##った": 9192,
      "cf": 9193,
      "3m": 9194,
      "big": 9195,
      "##ut": 9196,
      "ftp": 9197,
      "carol": 9198,
      "##vi": 9199,
      "１０": 9200,
      "1961": 9201,
      "happy": 9202,
      "sd": 9203,
      "##ac": 9204,
      "122": 9205,
      "anti": 9206,
      "pe": 9207,
      "cnn": 9208,
      "iii": 9209,
      "1920": 9210,
      "138": 9211,
      "##ラ": 9212,
      "1940": 9213,
      "esp": 9214,
      "jan": 9215,
      "tags": 9216,
      "##98": 9217,
      "##51": 9218,
      "august": 9219,
      "vol": 9220,
      "##86": 9221,
      "154": 9222,
      "##™": 9223,
      "##fs": 9224,
      "##れ": 9225,
      "##sion": 9226,
      "design": 9227,
      "ac": 9228,
      "##ム": 9229,
      "press": 9230,
      "jordan": 9231,
      "ppp": 9232,
      "that": 9233,
      "key": 9234,
      "check": 9235,
      "##６": 9236,
      "##tt": 9237,
      "##㎡": 9238,
      "1080p": 9239,
      "##lt": 9240,
      "power": 9241,
      "##42": 9242,
      "1952": 9243,
      "##bc": 9244,
      "vivi": 9245,
      "##ック": 9246,
      "he": 9247,
      "133": 9248,
      "121": 9249,
      "jpg": 9250,
      "##rry": 9251,
      "201": 9252,
      "175": 9253,
      "3500": 9254,
      "1947": 9255,
      "nb": 9256,
      "##ted": 9257,
      "##rn": 9258,
      "しています": 9259,
      "1954": 9260,
      "usd": 9261,
      "##t00": 9262,
      "master": 9263,
      "##ンク": 9264,
      "001": 9265,
      "model": 9266,
      "##58": 9267,
      "al": 9268,
      "##09": 9269,
      "1953": 9270,
      "##34": 9271,
      "ram": 9272,
      "goo": 9273,
      "ても": 9274,
      "##ui": 9275,
      "127": 9276,
      "1930": 9277,
      "red": 9278,
      "##ary": 9279,
      "rpg": 9280,
      "item": 9281,
      "##pm": 9282,
      "##41": 9283,
      "270": 9284,
      "##za": 9285,
      "project": 9286,
      "##2012": 9287,
      "hot": 9288,
      "td": 9289,
      "blogabstract": 9290,
      "##ger": 9291,
      "##62": 9292,
      "650": 9293,
      "##44": 9294,
      "gr2": 9295,
      "##します": 9296,
      "##ｍ": 9297,
      "black": 9298,
      "electronic": 9299,
      "nfc": 9300,
      "year": 9301,
      "asus": 9302,
      "また": 9303,
      "html5": 9304,
      "cindy": 9305,
      "##hd": 9306,
      "m3": 9307,
      "132": 9308,
      "esc": 9309,
      "##od": 9310,
      "booking": 9311,
      "##53": 9312,
      "fed": 9313,
      "tvb": 9314,
      "##81": 9315,
      "##ina": 9316,
      "mit": 9317,
      "165": 9318,
      "##いる": 9319,
      "chan": 9320,
      "192": 9321,
      "distribution": 9322,
      "next": 9323,
      "になる": 9324,
      "peter": 9325,
      "bios": 9326,
      "steam": 9327,
      "cm": 9328,
      "1941": 9329,
      "にも": 9330,
      "pk10": 9331,
      "##ix": 9332,
      "##65": 9333,
      "##91": 9334,
      "dec": 9335,
      "nasa": 9336,
      "##ana": 9337,
      "icecat": 9338,
      "00z": 9339,
      "b1": 9340,
      "will": 9341,
      "##46": 9342,
      "li": 9343,
      "se": 9344,
      "##ji": 9345,
      "##み": 9346,
      "##ard": 9347,
      "oct": 9348,
      "##ain": 9349,
      "jp": 9350,
      "##ze": 9351,
      "##bi": 9352,
      "cio": 9353,
      "##56": 9354,
      "smart": 9355,
      "h5": 9356,
      "##39": 9357,
      "##port": 9358,
      "curve": 9359,
      "vpn": 9360,
      "##nm": 9361,
      "##dia": 9362,
      "utc": 9363,
      "##あり": 9364,
      "12345678910": 9365,
      "##52": 9366,
      "rmvb": 9367,
      "chanel": 9368,
      "a4": 9369,
      "miss": 9370,
      "##and": 9371,
      "##im": 9372,
      "media": 9373,
      "who": 9374,
      "##63": 9375,
      "she": 9376,
      "girl": 9377,
      "5s": 9378,
      "124": 9379,
      "vera": 9380,
      "##して": 9381,
      "class": 9382,
      "vivo": 9383,
      "king": 9384,
      "##フ": 9385,
      "##ei": 9386,
      "national": 9387,
      "ab": 9388,
      "1951": 9389,
      "5cm": 9390,
      "888": 9391,
      "145": 9392,
      "ipod": 9393,
      "ap": 9394,
      "1100": 9395,
      "5mm": 9396,
      "211": 9397,
      "ms": 9398,
      "2756": 9399,
      "##69": 9400,
      "mp4": 9401,
      "msci": 9402,
      "##po": 9403,
      "##89": 9404,
      "131": 9405,
      "mg": 9406,
      "index": 9407,
      "380": 9408,
      "##bit": 9409,
      "##out": 9410,
      "##zz": 9411,
      "##97": 9412,
      "##67": 9413,
      "158": 9414,
      "apec": 9415,
      "##８": 9416,
      "photoshop": 9417,
      "opec": 9418,
      "￥799": 9419,
      "ては": 9420,
      "##96": 9421,
      "##tes": 9422,
      "##ast": 9423,
      "2g": 9424,
      "○○": 9425,
      "##ール": 9426,
      "￥2899": 9427,
      "##ling": 9428,
      "##よ": 9429,
      "##ory": 9430,
      "1938": 9431,
      "##ical": 9432,
      "kitty": 9433,
      "content": 9434,
      "##43": 9435,
      "step3": 9436,
      "##cn": 9437,
      "win8": 9438,
      "155": 9439,
      "vc": 9440,
      "1400": 9441,
      "iphone7": 9442,
      "robert": 9443,
      "##した": 9444,
      "tcl": 9445,
      "137": 9446,
      "beauty": 9447,
      "##87": 9448,
      "en": 9449,
      "dollars": 9450,
      "##ys": 9451,
      "##oc": 9452,
      "step": 9453,
      "pay": 9454,
      "yy": 9455,
      "a1": 9456,
      "##2011": 9457,
      "##lly": 9458,
      "##ks": 9459,
      "##♪": 9460,
      "1939": 9461,
      "188": 9462,
      "download": 9463,
      "1944": 9464,
      "sep": 9465,
      "exe": 9466,
      "ph": 9467,
      "います": 9468,
      "school": 9469,
      "gb": 9470,
      "center": 9471,
      "pr": 9472,
      "street": 9473,
      "##board": 9474,
      "uv": 9475,
      "##37": 9476,
      "##lan": 9477,
      "winrar": 9478,
      "##que": 9479,
      "##ua": 9480,
      "##com": 9481,
      "1942": 9482,
      "1936": 9483,
      "480": 9484,
      "gpu": 9485,
      "##４": 9486,
      "ettoday": 9487,
      "fu": 9488,
      "tom": 9489,
      "##54": 9490,
      "##ren": 9491,
      "##via": 9492,
      "149": 9493,
      "##72": 9494,
      "b2b": 9495,
      "144": 9496,
      "##79": 9497,
      "##tch": 9498,
      "rose": 9499,
      "arm": 9500,
      "mb": 9501,
      "##49": 9502,
      "##ial": 9503,
      "##nn": 9504,
      "nvidia": 9505,
      "step4": 9506,
      "mvp": 9507,
      "00㎡": 9508,
      "york": 9509,
      "156": 9510,
      "##イ": 9511,
      "how": 9512,
      "cpi": 9513,
      "591": 9514,
      "2765": 9515,
      "gov": 9516,
      "kg": 9517,
      "joe": 9518,
      "##xx": 9519,
      "mandy": 9520,
      "pa": 9521,
      "##ser": 9522,
      "copyright": 9523,
      "fashion": 9524,
      "1935": 9525,
      "don": 9526,
      "##け": 9527,
      "ecu": 9528,
      "##ist": 9529,
      "##art": 9530,
      "erp": 9531,
      "wap": 9532,
      "have": 9533,
      "##lm": 9534,
      "talk": 9535,
      "##ek": 9536,
      "##ning": 9537,
      "##if": 9538,
      "ch": 9539,
      "##ite": 9540,
      "video": 9541,
      "1943": 9542,
      "cs": 9543,
      "san": 9544,
      "iot": 9545,
      "look": 9546,
      "##84": 9547,
      "##2010": 9548,
      "##ku": 9549,
      "october": 9550,
      "##ux": 9551,
      "trump": 9552,
      "##hs": 9553,
      "##ide": 9554,
      "box": 9555,
      "141": 9556,
      "first": 9557,
      "##ins": 9558,
      "april": 9559,
      "##ight": 9560,
      "##83": 9561,
      "185": 9562,
      "angel": 9563,
      "protected": 9564,
      "aa": 9565,
      "151": 9566,
      "162": 9567,
      "x1": 9568,
      "m2": 9569,
      "##fe": 9570,
      "##×": 9571,
      "##ho": 9572,
      "size": 9573,
      "143": 9574,
      "min": 9575,
      "ofo": 9576,
      "fun": 9577,
      "gomaji": 9578,
      "ex": 9579,
      "hdmi": 9580,
      "food": 9581,
      "dns": 9582,
      "march": 9583,
      "chris": 9584,
      "kevin": 9585,
      "##のか": 9586,
      "##lla": 9587,
      "##pp": 9588,
      "##ec": 9589,
      "ag": 9590,
      "ems": 9591,
      "6s": 9592,
      "720p": 9593,
      "##rm": 9594,
      "##ham": 9595,
      "off": 9596,
      "##92": 9597,
      "asp": 9598,
      "team": 9599,
      "fandom": 9600,
      "ed": 9601,
      "299": 9602,
      "▌♥": 9603,
      "##ell": 9604,
      "info": 9605,
      "されています": 9606,
      "##82": 9607,
      "sina": 9608,
      "4066": 9609,
      "161": 9610,
      "##able": 9611,
      "##ctor": 9612,
      "330": 9613,
      "399": 9614,
      "315": 9615,
      "dll": 9616,
      "rights": 9617,
      "ltd": 9618,
      "idc": 9619,
      "jul": 9620,
      "3kg": 9621,
      "1927": 9622,
      "142": 9623,
      "ma": 9624,
      "surface": 9625,
      "##76": 9626,
      "##ク": 9627,
      "～～～": 9628,
      "304": 9629,
      "mall": 9630,
      "eps": 9631,
      "146": 9632,
      "green": 9633,
      "##59": 9634,
      "map": 9635,
      "space": 9636,
      "donald": 9637,
      "v2": 9638,
      "sodu": 9639,
      "##light": 9640,
      "1931": 9641,
      "148": 9642,
      "1700": 9643,
      "まて": 9644,
      "310": 9645,
      "reserved": 9646,
      "htm": 9647,
      "##han": 9648,
      "##57": 9649,
      "2d": 9650,
      "178": 9651,
      "mod": 9652,
      "##ise": 9653,
      "##tions": 9654,
      "152": 9655,
      "ti": 9656,
      "##shi": 9657,
      "doc": 9658,
      "1933": 9659,
      "icp": 9660,
      "055": 9661,
      "wang": 9662,
      "##ram": 9663,
      "shopping": 9664,
      "aug": 9665,
      "##pi": 9666,
      "##well": 9667,
      "now": 9668,
      "wam": 9669,
      "b2": 9670,
      "からお": 9671,
      "##hu": 9672,
      "236": 9673,
      "1928": 9674,
      "##gb": 9675,
      "266": 9676,
      "f2": 9677,
      "##93": 9678,
      "153": 9679,
      "mix": 9680,
      "##ef": 9681,
      "##uan": 9682,
      "bwl": 9683,
      "##plus": 9684,
      "##res": 9685,
      "core": 9686,
      "##ess": 9687,
      "tea": 9688,
      "5℃": 9689,
      "hktvmall": 9690,
      "nhk": 9691,
      "##ate": 9692,
      "list": 9693,
      "##ese": 9694,
      "301": 9695,
      "feb": 9696,
      "4m": 9697,
      "inn": 9698,
      "ての": 9699,
      "nov": 9700,
      "159": 9701,
      "12345": 9702,
      "daniel": 9703,
      "##ci": 9704,
      "pass": 9705,
      "##bet": 9706,
      "##nk": 9707,
      "coffee": 9708,
      "202": 9709,
      "ssl": 9710,
      "airbnb": 9711,
      "##ute": 9712,
      "fbi": 9713,
      "woshipm": 9714,
      "skype": 9715,
      "ea": 9716,
      "cg": 9717,
      "sp": 9718,
      "##fc": 9719,
      "##www": 9720,
      "yes": 9721,
      "edge": 9722,
      "alt": 9723,
      "007": 9724,
      "##94": 9725,
      "fpga": 9726,
      "##ght": 9727,
      "##gs": 9728,
      "iso9001": 9729,
      "さい": 9730,
      "##ile": 9731,
      "##wood": 9732,
      "##uo": 9733,
      "image": 9734,
      "lin": 9735,
      "icon": 9736,
      "american": 9737,
      "##em": 9738,
      "1932": 9739,
      "set": 9740,
      "says": 9741,
      "##king": 9742,
      "##tive": 9743,
      "blogger": 9744,
      "##74": 9745,
      "なと": 9746,
      "256": 9747,
      "147": 9748,
      "##ox": 9749,
      "##zy": 9750,
      "##red": 9751,
      "##ium": 9752,
      "##lf": 9753,
      "nokia": 9754,
      "claire": 9755,
      "##リ": 9756,
      "##ding": 9757,
      "november": 9758,
      "lohas": 9759,
      "##500": 9760,
      "##tic": 9761,
      "##マ": 9762,
      "##cs": 9763,
      "##ある": 9764,
      "##che": 9765,
      "##ire": 9766,
      "##gy": 9767,
      "##ult": 9768,
      "db": 9769,
      "january": 9770,
      "win": 9771,
      "##カ": 9772,
      "166": 9773,
      "road": 9774,
      "ptt": 9775,
      "##ま": 9776,
      "##つ": 9777,
      "198": 9778,
      "##fa": 9779,
      "##mer": 9780,
      "anna": 9781,
      "pchome": 9782,
      "はい": 9783,
      "udn": 9784,
      "ef": 9785,
      "420": 9786,
      "##time": 9787,
      "##tte": 9788,
      "2030": 9789,
      "##ア": 9790,
      "g20": 9791,
      "white": 9792,
      "かかります": 9793,
      "1929": 9794,
      "308": 9795,
      "garden": 9796,
      "eleven": 9797,
      "di": 9798,
      "##おります": 9799,
      "chen": 9800,
      "309b": 9801,
      "777": 9802,
      "172": 9803,
      "young": 9804,
      "cosplay": 9805,
      "ちてない": 9806,
      "4500": 9807,
      "bat": 9808,
      "##123": 9809,
      "##tra": 9810,
      "##ては": 9811,
      "kindle": 9812,
      "npc": 9813,
      "steve": 9814,
      "etc": 9815,
      "##ern": 9816,
      "##｜": 9817,
      "call": 9818,
      "xperia": 9819,
      "ces": 9820,
      "travel": 9821,
      "sk": 9822,
      "s7": 9823,
      "##ous": 9824,
      "1934": 9825,
      "##int": 9826,
      "みいたたけます": 9827,
      "183": 9828,
      "edu": 9829,
      "file": 9830,
      "cho": 9831,
      "qr": 9832,
      "##car": 9833,
      "##our": 9834,
      "186": 9835,
      "##ant": 9836,
      "##ｄ": 9837,
      "eric": 9838,
      "1914": 9839,
      "rends": 9840,
      "##jo": 9841,
      "##する": 9842,
      "mastercard": 9843,
      "##2000": 9844,
      "kb": 9845,
      "##min": 9846,
      "290": 9847,
      "##ino": 9848,
      "vista": 9849,
      "##ris": 9850,
      "##ud": 9851,
      "jack": 9852,
      "2400": 9853,
      "##set": 9854,
      "169": 9855,
      "pos": 9856,
      "1912": 9857,
      "##her": 9858,
      "##ou": 9859,
      "taipei": 9860,
      "しく": 9861,
      "205": 9862,
      "beta": 9863,
      "##ませんか": 9864,
      "232": 9865,
      "##fi": 9866,
      "express": 9867,
      "255": 9868,
      "body": 9869,
      "##ill": 9870,
      "aphojoy": 9871,
      "user": 9872,
      "december": 9873,
      "meiki": 9874,
      "##ick": 9875,
      "tweet": 9876,
      "richard": 9877,
      "##av": 9878,
      "##ᆫ": 9879,
      "iphone6": 9880,
      "##dd": 9881,
      "ちてすか": 9882,
      "views": 9883,
      "##mark": 9884,
      "321": 9885,
      "pd": 9886,
      "##００": 9887,
      "times": 9888,
      "##▲": 9889,
      "level": 9890,
      "##ash": 9891,
      "10g": 9892,
      "point": 9893,
      "5l": 9894,
      "##ome": 9895,
      "208": 9896,
      "koreanmall": 9897,
      "##ak": 9898,
      "george": 9899,
      "q2": 9900,
      "206": 9901,
      "wma": 9902,
      "tcp": 9903,
      "##200": 9904,
      "スタッフ": 9905,
      "full": 9906,
      "mlb": 9907,
      "##lle": 9908,
      "##watch": 9909,
      "tm": 9910,
      "run": 9911,
      "179": 9912,
      "911": 9913,
      "smith": 9914,
      "business": 9915,
      "##und": 9916,
      "1919": 9917,
      "color": 9918,
      "##tal": 9919,
      "222": 9920,
      "171": 9921,
      "##less": 9922,
      "moon": 9923,
      "4399": 9924,
      "##rl": 9925,
      "update": 9926,
      "pcb": 9927,
      "shop": 9928,
      "499": 9929,
      "157": 9930,
      "little": 9931,
      "なし": 9932,
      "end": 9933,
      "##mhz": 9934,
      "van": 9935,
      "dsp": 9936,
      "easy": 9937,
      "660": 9938,
      "##house": 9939,
      "##key": 9940,
      "history": 9941,
      "##ｏ": 9942,
      "oh": 9943,
      "##001": 9944,
      "##hy": 9945,
      "##web": 9946,
      "oem": 9947,
      "let": 9948,
      "was": 9949,
      "##2009": 9950,
      "##gg": 9951,
      "review": 9952,
      "##wan": 9953,
      "182": 9954,
      "##°c": 9955,
      "203": 9956,
      "uc": 9957,
      "title": 9958,
      "##val": 9959,
      "united": 9960,
      "233": 9961,
      "2021": 9962,
      "##ons": 9963,
      "doi": 9964,
      "trivago": 9965,
      "overdope": 9966,
      "sbs": 9967,
      "##ance": 9968,
      "##ち": 9969,
      "grand": 9970,
      "special": 9971,
      "573032185": 9972,
      "imf": 9973,
      "216": 9974,
      "wx17house": 9975,
      "##so": 9976,
      "##ーム": 9977,
      "audi": 9978,
      "##he": 9979,
      "london": 9980,
      "william": 9981,
      "##rp": 9982,
      "##ake": 9983,
      "science": 9984,
      "beach": 9985,
      "cfa": 9986,
      "amp": 9987,
      "ps4": 9988,
      "880": 9989,
      "##800": 9990,
      "##link": 9991,
      "##hp": 9992,
      "crm": 9993,
      "ferragamo": 9994,
      "bell": 9995,
      "make": 9996,
      "##eng": 9997,
      "195": 9998,
      "under": 9999,
      "zh": 10000,
      "photos": 10001,
      "2300": 10002,
      "##style": 10003,
      "##ント": 10004,
      "via": 10005,
      "176": 10006,
      "da": 10007,
      "##gi": 10008,
      "company": 10009,
      "i7": 10010,
      "##ray": 10011,
      "thomas": 10012,
      "370": 10013,
      "ufo": 10014,
      "i5": 10015,
      "##max": 10016,
      "plc": 10017,
      "ben": 10018,
      "back": 10019,
      "research": 10020,
      "8g": 10021,
      "173": 10022,
      "mike": 10023,
      "##pc": 10024,
      "##ッフ": 10025,
      "september": 10026,
      "189": 10027,
      "##ace": 10028,
      "vps": 10029,
      "february": 10030,
      "167": 10031,
      "pantos": 10032,
      "wp": 10033,
      "lisa": 10034,
      "1921": 10035,
      "★★": 10036,
      "jquery": 10037,
      "night": 10038,
      "long": 10039,
      "offer": 10040,
      "##berg": 10041,
      "##news": 10042,
      "1911": 10043,
      "##いて": 10044,
      "ray": 10045,
      "fks": 10046,
      "wto": 10047,
      "せます": 10048,
      "over": 10049,
      "164": 10050,
      "340": 10051,
      "##all": 10052,
      "##rus": 10053,
      "1924": 10054,
      "##888": 10055,
      "##works": 10056,
      "blogtitle": 10057,
      "loftpermalink": 10058,
      "##→": 10059,
      "187": 10060,
      "martin": 10061,
      "test": 10062,
      "ling": 10063,
      "km": 10064,
      "##め": 10065,
      "15000": 10066,
      "fda": 10067,
      "v3": 10068,
      "##ja": 10069,
      "##ロ": 10070,
      "ｗedding": 10071,
      "かある": 10072,
      "outlet": 10073,
      "family": 10074,
      "##ea": 10075,
      "をこ": 10076,
      "##top": 10077,
      "story": 10078,
      "##ness": 10079,
      "salvatore": 10080,
      "##lu": 10081,
      "204": 10082,
      "swift": 10083,
      "215": 10084,
      "room": 10085,
      "している": 10086,
      "oracle": 10087,
      "##ul": 10088,
      "1925": 10089,
      "sam": 10090,
      "b2c": 10091,
      "week": 10092,
      "pi": 10093,
      "rock": 10094,
      "##のは": 10095,
      "##ａ": 10096,
      "##けと": 10097,
      "##ean": 10098,
      "##300": 10099,
      "##gle": 10100,
      "cctv": 10101,
      "after": 10102,
      "chinese": 10103,
      "##back": 10104,
      "powered": 10105,
      "x2": 10106,
      "##tan": 10107,
      "1918": 10108,
      "##nes": 10109,
      "##イン": 10110,
      "canon": 10111,
      "only": 10112,
      "181": 10113,
      "##zi": 10114,
      "##las": 10115,
      "say": 10116,
      "##oe": 10117,
      "184": 10118,
      "##sd": 10119,
      "221": 10120,
      "##bot": 10121,
      "##world": 10122,
      "##zo": 10123,
      "sky": 10124,
      "made": 10125,
      "top100": 10126,
      "just": 10127,
      "1926": 10128,
      "pmi": 10129,
      "802": 10130,
      "234": 10131,
      "gap": 10132,
      "##vr": 10133,
      "177": 10134,
      "les": 10135,
      "174": 10136,
      "▲topoct": 10137,
      "ball": 10138,
      "vogue": 10139,
      "vi": 10140,
      "ing": 10141,
      "ofweek": 10142,
      "cos": 10143,
      "##list": 10144,
      "##ort": 10145,
      "▲topmay": 10146,
      "##なら": 10147,
      "##lon": 10148,
      "として": 10149,
      "last": 10150,
      "##tc": 10151,
      "##of": 10152,
      "##bus": 10153,
      "##gen": 10154,
      "real": 10155,
      "eva": 10156,
      "##コ": 10157,
      "a3": 10158,
      "nas": 10159,
      "##lie": 10160,
      "##ria": 10161,
      "##coin": 10162,
      "##bt": 10163,
      "▲topapr": 10164,
      "his": 10165,
      "212": 10166,
      "cat": 10167,
      "nata": 10168,
      "vive": 10169,
      "health": 10170,
      "⋯⋯": 10171,
      "drive": 10172,
      "sir": 10173,
      "▲topmar": 10174,
      "du": 10175,
      "cup": 10176,
      "##カー": 10177,
      "##ook": 10178,
      "##よう": 10179,
      "##sy": 10180,
      "alex": 10181,
      "msg": 10182,
      "tour": 10183,
      "しました": 10184,
      "3ce": 10185,
      "##word": 10186,
      "193": 10187,
      "ebooks": 10188,
      "r8": 10189,
      "block": 10190,
      "318": 10191,
      "##より": 10192,
      "2200": 10193,
      "nice": 10194,
      "pvp": 10195,
      "207": 10196,
      "months": 10197,
      "1905": 10198,
      "rewards": 10199,
      "##ther": 10200,
      "1917": 10201,
      "0800": 10202,
      "##xi": 10203,
      "##チ": 10204,
      "##sc": 10205,
      "micro": 10206,
      "850": 10207,
      "gg": 10208,
      "blogfp": 10209,
      "op": 10210,
      "1922": 10211,
      "daily": 10212,
      "m1": 10213,
      "264": 10214,
      "true": 10215,
      "##bb": 10216,
      "ml": 10217,
      "##tar": 10218,
      "##のお": 10219,
      "##ky": 10220,
      "anthony": 10221,
      "196": 10222,
      "253": 10223,
      "##yo": 10224,
      "state": 10225,
      "218": 10226,
      "##ara": 10227,
      "##aa": 10228,
      "##rc": 10229,
      "##tz": 10230,
      "##ston": 10231,
      "より": 10232,
      "gear": 10233,
      "##eo": 10234,
      "##ade": 10235,
      "ge": 10236,
      "see": 10237,
      "1923": 10238,
      "##win": 10239,
      "##ura": 10240,
      "ss": 10241,
      "heart": 10242,
      "##den": 10243,
      "##ita": 10244,
      "down": 10245,
      "##sm": 10246,
      "el": 10247,
      "png": 10248,
      "2100": 10249,
      "610": 10250,
      "rakuten": 10251,
      "whatsapp": 10252,
      "bay": 10253,
      "dream": 10254,
      "add": 10255,
      "##use": 10256,
      "680": 10257,
      "311": 10258,
      "pad": 10259,
      "gucci": 10260,
      "mpv": 10261,
      "##ode": 10262,
      "##fo": 10263,
      "island": 10264,
      "▲topjun": 10265,
      "##▼": 10266,
      "223": 10267,
      "jason": 10268,
      "214": 10269,
      "chicago": 10270,
      "##❤": 10271,
      "しの": 10272,
      "##hone": 10273,
      "io": 10274,
      "##れる": 10275,
      "##ことか": 10276,
      "sogo": 10277,
      "be2": 10278,
      "##ology": 10279,
      "990": 10280,
      "cloud": 10281,
      "vcd": 10282,
      "##con": 10283,
      "2～3": 10284,
      "##ford": 10285,
      "##joy": 10286,
      "##kb": 10287,
      "##こさいます": 10288,
      "##rade": 10289,
      "but": 10290,
      "##ach": 10291,
      "docker": 10292,
      "##ful": 10293,
      "rfid": 10294,
      "ul": 10295,
      "##ase": 10296,
      "hit": 10297,
      "ford": 10298,
      "##star": 10299,
      "580": 10300,
      "##○": 10301,
      "１１": 10302,
      "a2": 10303,
      "sdk": 10304,
      "reading": 10305,
      "edited": 10306,
      "##are": 10307,
      "cmos": 10308,
      "##mc": 10309,
      "238": 10310,
      "siri": 10311,
      "light": 10312,
      "##ella": 10313,
      "##ため": 10314,
      "bloomberg": 10315,
      "##read": 10316,
      "pizza": 10317,
      "##ison": 10318,
      "jimmy": 10319,
      "##vm": 10320,
      "college": 10321,
      "node": 10322,
      "journal": 10323,
      "ba": 10324,
      "18k": 10325,
      "##play": 10326,
      "245": 10327,
      "##cer": 10328,
      "２０": 10329,
      "magic": 10330,
      "##yu": 10331,
      "191": 10332,
      "jump": 10333,
      "288": 10334,
      "tt": 10335,
      "##ings": 10336,
      "asr": 10337,
      "##lia": 10338,
      "3200": 10339,
      "step5": 10340,
      "network": 10341,
      "##cd": 10342,
      "mc": 10343,
      "いします": 10344,
      "1234": 10345,
      "pixstyleme": 10346,
      "273": 10347,
      "##600": 10348,
      "2800": 10349,
      "money": 10350,
      "★★★★★": 10351,
      "1280": 10352,
      "１２": 10353,
      "430": 10354,
      "bl": 10355,
      "みの": 10356,
      "act": 10357,
      "##tus": 10358,
      "tokyo": 10359,
      "##rial": 10360,
      "##life": 10361,
      "emba": 10362,
      "##ae": 10363,
      "saas": 10364,
      "tcs": 10365,
      "##rk": 10366,
      "##wang": 10367,
      "summer": 10368,
      "##sp": 10369,
      "ko": 10370,
      "##ving": 10371,
      "390": 10372,
      "premium": 10373,
      "##その": 10374,
      "netflix": 10375,
      "##ヒ": 10376,
      "uk": 10377,
      "mt": 10378,
      "##lton": 10379,
      "right": 10380,
      "frank": 10381,
      "two": 10382,
      "209": 10383,
      "える": 10384,
      "##ple": 10385,
      "##cal": 10386,
      "021": 10387,
      "##んな": 10388,
      "##sen": 10389,
      "##ville": 10390,
      "hold": 10391,
      "nexus": 10392,
      "dd": 10393,
      "##ius": 10394,
      "てお": 10395,
      "##mah": 10396,
      "##なく": 10397,
      "tila": 10398,
      "zero": 10399,
      "820": 10400,
      "ce": 10401,
      "##tin": 10402,
      "resort": 10403,
      "##ws": 10404,
      "charles": 10405,
      "old": 10406,
      "p10": 10407,
      "5d": 10408,
      "report": 10409,
      "##360": 10410,
      "##ru": 10411,
      "##には": 10412,
      "bus": 10413,
      "vans": 10414,
      "lt": 10415,
      "##est": 10416,
      "pv": 10417,
      "##レ": 10418,
      "links": 10419,
      "rebecca": 10420,
      "##ツ": 10421,
      "##dm": 10422,
      "azure": 10423,
      "##365": 10424,
      "きな": 10425,
      "limited": 10426,
      "bit": 10427,
      "4gb": 10428,
      "##mon": 10429,
      "1910": 10430,
      "moto": 10431,
      "##eam": 10432,
      "213": 10433,
      "1913": 10434,
      "var": 10435,
      "eos": 10436,
      "なとの": 10437,
      "226": 10438,
      "blogspot": 10439,
      "された": 10440,
      "699": 10441,
      "e3": 10442,
      "dos": 10443,
      "dm": 10444,
      "fc": 10445,
      "##ments": 10446,
      "##ik": 10447,
      "##kw": 10448,
      "boy": 10449,
      "##bin": 10450,
      "##ata": 10451,
      "960": 10452,
      "er": 10453,
      "##せ": 10454,
      "219": 10455,
      "##vin": 10456,
      "##tu": 10457,
      "##ula": 10458,
      "194": 10459,
      "##∥": 10460,
      "station": 10461,
      "##ろ": 10462,
      "##ature": 10463,
      "835": 10464,
      "files": 10465,
      "zara": 10466,
      "hdr": 10467,
      "top10": 10468,
      "nature": 10469,
      "950": 10470,
      "magazine": 10471,
      "s6": 10472,
      "marriott": 10473,
      "##シ": 10474,
      "avira": 10475,
      "case": 10476,
      "##っと": 10477,
      "tab": 10478,
      "##ran": 10479,
      "tony": 10480,
      "##home": 10481,
      "oculus": 10482,
      "im": 10483,
      "##ral": 10484,
      "jean": 10485,
      "saint": 10486,
      "cry": 10487,
      "307": 10488,
      "rosie": 10489,
      "##force": 10490,
      "##ini": 10491,
      "ice": 10492,
      "##bert": 10493,
      "のある": 10494,
      "##nder": 10495,
      "##mber": 10496,
      "pet": 10497,
      "2600": 10498,
      "##◆": 10499,
      "plurk": 10500,
      "▲topdec": 10501,
      "##sis": 10502,
      "00kg": 10503,
      "▲topnov": 10504,
      "720": 10505,
      "##ence": 10506,
      "tim": 10507,
      "##ω": 10508,
      "##nc": 10509,
      "##ても": 10510,
      "##name": 10511,
      "log": 10512,
      "ips": 10513,
      "great": 10514,
      "ikea": 10515,
      "malaysia": 10516,
      "unix": 10517,
      "##イト": 10518,
      "3600": 10519,
      "##ncy": 10520,
      "##nie": 10521,
      "12000": 10522,
      "akb48": 10523,
      "##ye": 10524,
      "##oid": 10525,
      "404": 10526,
      "##chi": 10527,
      "##いた": 10528,
      "oa": 10529,
      "xuehai": 10530,
      "##1000": 10531,
      "##orm": 10532,
      "##rf": 10533,
      "275": 10534,
      "さん": 10535,
      "##ware": 10536,
      "##リー": 10537,
      "980": 10538,
      "ho": 10539,
      "##pro": 10540,
      "text": 10541,
      "##era": 10542,
      "560": 10543,
      "bob": 10544,
      "227": 10545,
      "##ub": 10546,
      "##2008": 10547,
      "8891": 10548,
      "scp": 10549,
      "avi": 10550,
      "##zen": 10551,
      "2022": 10552,
      "mi": 10553,
      "wu": 10554,
      "museum": 10555,
      "qvod": 10556,
      "apache": 10557,
      "lake": 10558,
      "jcb": 10559,
      "▲topaug": 10560,
      "★★★": 10561,
      "ni": 10562,
      "##hr": 10563,
      "hill": 10564,
      "302": 10565,
      "ne": 10566,
      "weibo": 10567,
      "490": 10568,
      "ruby": 10569,
      "##ーシ": 10570,
      "##ヶ": 10571,
      "##row": 10572,
      "4d": 10573,
      "▲topjul": 10574,
      "iv": 10575,
      "##ish": 10576,
      "github": 10577,
      "306": 10578,
      "mate": 10579,
      "312": 10580,
      "##スト": 10581,
      "##lot": 10582,
      "##ane": 10583,
      "andrew": 10584,
      "のハイト": 10585,
      "##tina": 10586,
      "t1": 10587,
      "rf": 10588,
      "ed2k": 10589,
      "##vel": 10590,
      "##900": 10591,
      "way": 10592,
      "final": 10593,
      "りの": 10594,
      "ns": 10595,
      "5a": 10596,
      "705": 10597,
      "197": 10598,
      "##メ": 10599,
      "sweet": 10600,
      "bytes": 10601,
      "##ene": 10602,
      "▲topjan": 10603,
      "231": 10604,
      "##cker": 10605,
      "##2007": 10606,
      "##px": 10607,
      "100g": 10608,
      "topapp": 10609,
      "229": 10610,
      "helpapp": 10611,
      "rs": 10612,
      "low": 10613,
      "14k": 10614,
      "g4g": 10615,
      "care": 10616,
      "630": 10617,
      "ldquo": 10618,
      "あり": 10619,
      "##fork": 10620,
      "leave": 10621,
      "rm": 10622,
      "edition": 10623,
      "##gan": 10624,
      "##zon": 10625,
      "##qq": 10626,
      "▲topsep": 10627,
      "##google": 10628,
      "##ism": 10629,
      "gold": 10630,
      "224": 10631,
      "explorer": 10632,
      "##zer": 10633,
      "toyota": 10634,
      "category": 10635,
      "select": 10636,
      "visual": 10637,
      "##labels": 10638,
      "restaurant": 10639,
      "##md": 10640,
      "posts": 10641,
      "s1": 10642,
      "##ico": 10643,
      "もっと": 10644,
      "angelababy": 10645,
      "123456": 10646,
      "217": 10647,
      "sports": 10648,
      "s3": 10649,
      "mbc": 10650,
      "1915": 10651,
      "してくたさい": 10652,
      "shell": 10653,
      "x86": 10654,
      "candy": 10655,
      "##new": 10656,
      "kbs": 10657,
      "face": 10658,
      "xl": 10659,
      "470": 10660,
      "##here": 10661,
      "4a": 10662,
      "swissinfo": 10663,
      "v8": 10664,
      "▲topfeb": 10665,
      "dram": 10666,
      "##ual": 10667,
      "##vice": 10668,
      "3a": 10669,
      "##wer": 10670,
      "sport": 10671,
      "q1": 10672,
      "ios10": 10673,
      "public": 10674,
      "int": 10675,
      "card": 10676,
      "##ｃ": 10677,
      "ep": 10678,
      "au": 10679,
      "rt": 10680,
      "##れた": 10681,
      "1080": 10682,
      "bill": 10683,
      "##mll": 10684,
      "kim": 10685,
      "３０": 10686,
      "460": 10687,
      "wan": 10688,
      "##uk": 10689,
      "##ミ": 10690,
      "x3": 10691,
      "298": 10692,
      "0t": 10693,
      "scott": 10694,
      "##ming": 10695,
      "239": 10696,
      "e5": 10697,
      "##3d": 10698,
      "h7n9": 10699,
      "worldcat": 10700,
      "brown": 10701,
      "##あります": 10702,
      "##vo": 10703,
      "##led": 10704,
      "##580": 10705,
      "##ax": 10706,
      "249": 10707,
      "410": 10708,
      "##ert": 10709,
      "paris": 10710,
      "##～6": 10711,
      "polo": 10712,
      "925": 10713,
      "##lr": 10714,
      "599": 10715,
      "##ナ": 10716,
      "capital": 10717,
      "##hing": 10718,
      "bank": 10719,
      "cv": 10720,
      "1g": 10721,
      "##chat": 10722,
      "##ｓ": 10723,
      "##たい": 10724,
      "adc": 10725,
      "##ule": 10726,
      "2m": 10727,
      "##ｅ": 10728,
      "digital": 10729,
      "hotmail": 10730,
      "268": 10731,
      "##pad": 10732,
      "870": 10733,
      "bbq": 10734,
      "quot": 10735,
      "##ring": 10736,
      "before": 10737,
      "wali": 10738,
      "##まて": 10739,
      "mcu": 10740,
      "2k": 10741,
      "2b": 10742,
      "という": 10743,
      "costco": 10744,
      "316": 10745,
      "north": 10746,
      "333": 10747,
      "switch": 10748,
      "##city": 10749,
      "##ｐ": 10750,
      "philips": 10751,
      "##mann": 10752,
      "management": 10753,
      "panasonic": 10754,
      "##cl": 10755,
      "##vd": 10756,
      "##ping": 10757,
      "##rge": 10758,
      "alice": 10759,
      "##lk": 10760,
      "##ましょう": 10761,
      "css3": 10762,
      "##ney": 10763,
      "vision": 10764,
      "alpha": 10765,
      "##ular": 10766,
      "##400": 10767,
      "##tter": 10768,
      "lz": 10769,
      "にお": 10770,
      "##ありません": 10771,
      "mode": 10772,
      "gre": 10773,
      "1916": 10774,
      "pci": 10775,
      "##tm": 10776,
      "237": 10777,
      "1～2": 10778,
      "##yan": 10779,
      "##そ": 10780,
      "について": 10781,
      "##let": 10782,
      "##キ": 10783,
      "work": 10784,
      "war": 10785,
      "coach": 10786,
      "ah": 10787,
      "mary": 10788,
      "##ᅵ": 10789,
      "huang": 10790,
      "##pt": 10791,
      "a8": 10792,
      "pt": 10793,
      "follow": 10794,
      "##berry": 10795,
      "1895": 10796,
      "##ew": 10797,
      "a5": 10798,
      "ghost": 10799,
      "##ション": 10800,
      "##wn": 10801,
      "##og": 10802,
      "south": 10803,
      "##code": 10804,
      "girls": 10805,
      "##rid": 10806,
      "action": 10807,
      "villa": 10808,
      "git": 10809,
      "r11": 10810,
      "table": 10811,
      "games": 10812,
      "##cket": 10813,
      "error": 10814,
      "##anonymoussaid": 10815,
      "##ag": 10816,
      "here": 10817,
      "##ame": 10818,
      "##gc": 10819,
      "qa": 10820,
      "##■": 10821,
      "##lis": 10822,
      "gmp": 10823,
      "##gin": 10824,
      "vmalife": 10825,
      "##cher": 10826,
      "yu": 10827,
      "wedding": 10828,
      "##tis": 10829,
      "demo": 10830,
      "dragon": 10831,
      "530": 10832,
      "soho": 10833,
      "social": 10834,
      "bye": 10835,
      "##rant": 10836,
      "river": 10837,
      "orz": 10838,
      "acer": 10839,
      "325": 10840,
      "##↑": 10841,
      "##ース": 10842,
      "##ats": 10843,
      "261": 10844,
      "del": 10845,
      "##ven": 10846,
      "440": 10847,
      "ups": 10848,
      "##ように": 10849,
      "##ター": 10850,
      "305": 10851,
      "value": 10852,
      "macd": 10853,
      "yougou": 10854,
      "##dn": 10855,
      "661": 10856,
      "##ano": 10857,
      "ll": 10858,
      "##urt": 10859,
      "##rent": 10860,
      "continue": 10861,
      "script": 10862,
      "##wen": 10863,
      "##ect": 10864,
      "paper": 10865,
      "263": 10866,
      "319": 10867,
      "shift": 10868,
      "##chel": 10869,
      "##フト": 10870,
      "##cat": 10871,
      "258": 10872,
      "x5": 10873,
      "fox": 10874,
      "243": 10875,
      "##さん": 10876,
      "car": 10877,
      "aaa": 10878,
      "##blog": 10879,
      "loading": 10880,
      "##yn": 10881,
      "##tp": 10882,
      "kuso": 10883,
      "799": 10884,
      "si": 10885,
      "sns": 10886,
      "イカせるテンマ": 10887,
      "ヒンクテンマ3": 10888,
      "rmb": 10889,
      "vdc": 10890,
      "forest": 10891,
      "central": 10892,
      "prime": 10893,
      "help": 10894,
      "ultra": 10895,
      "##rmb": 10896,
      "##ような": 10897,
      "241": 10898,
      "square": 10899,
      "688": 10900,
      "##しい": 10901,
      "のないフロクに": 10902,
      "##field": 10903,
      "##reen": 10904,
      "##ors": 10905,
      "##ju": 10906,
      "c1": 10907,
      "start": 10908,
      "510": 10909,
      "##air": 10910,
      "##map": 10911,
      "cdn": 10912,
      "##wo": 10913,
      "cba": 10914,
      "stephen": 10915,
      "m8": 10916,
      "100km": 10917,
      "##get": 10918,
      "opera": 10919,
      "##base": 10920,
      "##ood": 10921,
      "vsa": 10922,
      "com™": 10923,
      "##aw": 10924,
      "##ail": 10925,
      "251": 10926,
      "なのて": 10927,
      "count": 10928,
      "t2": 10929,
      "##ᅡ": 10930,
      "##een": 10931,
      "2700": 10932,
      "hop": 10933,
      "##gp": 10934,
      "vsc": 10935,
      "tree": 10936,
      "##eg": 10937,
      "##ose": 10938,
      "816": 10939,
      "285": 10940,
      "##ories": 10941,
      "##shop": 10942,
      "alphago": 10943,
      "v4": 10944,
      "1909": 10945,
      "simon": 10946,
      "##ᆼ": 10947,
      "fluke62max": 10948,
      "zip": 10949,
      "スホンサー": 10950,
      "##sta": 10951,
      "louis": 10952,
      "cr": 10953,
      "bas": 10954,
      "##～10": 10955,
      "bc": 10956,
      "##yer": 10957,
      "hadoop": 10958,
      "##ube": 10959,
      "##wi": 10960,
      "1906": 10961,
      "0755": 10962,
      "hola": 10963,
      "##low": 10964,
      "place": 10965,
      "centre": 10966,
      "5v": 10967,
      "d3": 10968,
      "##fer": 10969,
      "252": 10970,
      "##750": 10971,
      "##media": 10972,
      "281": 10973,
      "540": 10974,
      "0l": 10975,
      "exchange": 10976,
      "262": 10977,
      "series": 10978,
      "##ハー": 10979,
      "##san": 10980,
      "eb": 10981,
      "##bank": 10982,
      "##ｋ": 10983,
      "q3": 10984,
      "##nge": 10985,
      "##mail": 10986,
      "take": 10987,
      "##lp": 10988,
      "259": 10989,
      "1888": 10990,
      "client": 10991,
      "east": 10992,
      "cache": 10993,
      "event": 10994,
      "vincent": 10995,
      "##ールを": 10996,
      "きを": 10997,
      "##nse": 10998,
      "sui": 10999,
      "855": 11000,
      "adchoice": 11001,
      "##и": 11002,
      "##stry": 11003,
      "##なたの": 11004,
      "246": 11005,
      "##zone": 11006,
      "ga": 11007,
      "apps": 11008,
      "sea": 11009,
      "##ab": 11010,
      "248": 11011,
      "cisco": 11012,
      "##タ": 11013,
      "##rner": 11014,
      "kymco": 11015,
      "##care": 11016,
      "dha": 11017,
      "##pu": 11018,
      "##yi": 11019,
      "minkoff": 11020,
      "royal": 11021,
      "p1": 11022,
      "への": 11023,
      "annie": 11024,
      "269": 11025,
      "collection": 11026,
      "kpi": 11027,
      "playstation": 11028,
      "257": 11029,
      "になります": 11030,
      "866": 11031,
      "bh": 11032,
      "##bar": 11033,
      "queen": 11034,
      "505": 11035,
      "radio": 11036,
      "1904": 11037,
      "andy": 11038,
      "armani": 11039,
      "##xy": 11040,
      "manager": 11041,
      "iherb": 11042,
      "##ery": 11043,
      "##share": 11044,
      "spring": 11045,
      "raid": 11046,
      "johnson": 11047,
      "1908": 11048,
      "##ob": 11049,
      "volvo": 11050,
      "hall": 11051,
      "##ball": 11052,
      "v6": 11053,
      "our": 11054,
      "taylor": 11055,
      "##hk": 11056,
      "bi": 11057,
      "242": 11058,
      "##cp": 11059,
      "kate": 11060,
      "bo": 11061,
      "water": 11062,
      "technology": 11063,
      "##rie": 11064,
[...]
